{"item2idx": {"[PAD]": 0, "[MASK]": 1, "q1": 2, "q10": 3, "q100": 4, "q1000": 5, "q10000": 6, "q10001": 7, "q10002": 8, "q10003": 9, "q10004": 10, "q10005": 11, "q10006": 12, "q10007": 13, "q10008": 14, "q10009": 15, "q1001": 16, "q10010": 17, "q10011": 18, "q10012": 19, "q10013": 20, "q10014": 21, "q10015": 22, "q10016": 23, "q10017": 24, "q10018": 25, "q10019": 26, "q1002": 27, "q10020": 28, "q10021": 29, "q10022": 30, "q10023": 31, "q10024": 32, "q10025": 33, "q10026": 34, "q10027": 35, "q10028": 36, "q10029": 37, "q1003": 38, "q10030": 39, "q10031": 40, "q10032": 41, "q10033": 42, "q10034": 43, "q10035": 44, "q10036": 45, "q10037": 46, "q10038": 47, "q10039": 48, "q1004": 49, "q10041": 50, "q10042": 51, "q10043": 52, "q10044": 53, "q10045": 54, "q10046": 55, "q10047": 56, "q10048": 57, "q10049": 58, "q1005": 59, "q10050": 60, "q10051": 61, "q10052": 62, "q10053": 63, "q10054": 64, "q10055": 65, "q10056": 66, "q10057": 67, "q10058": 68, "q10059": 69, "q1006": 70, "q10060": 71, "q10061": 72, "q10062": 73, "q10063": 74, "q10064": 75, "q10065": 76, "q10066": 77, "q10067": 78, "q10069": 79, "q1007": 80, "q10070": 81, "q10071": 82, "q10072": 83, "q10073": 84, "q10074": 85, "q10075": 86, "q10076": 87, "q10077": 88, "q10078": 89, "q10079": 90, "q1008": 91, "q10080": 92, "q10081": 93, "q10082": 94, "q10083": 95, "q10084": 96, "q10085": 97, "q10086": 98, "q10087": 99, "q10088": 100, "q10089": 101, "q1009": 102, "q10090": 103, "q10091": 104, "q10092": 105, "q10093": 106, "q10094": 107, "q10095": 108, "q10096": 109, "q10097": 110, "q10098": 111, "q10099": 112, "q101": 113, "q1010": 114, "q10100": 115, "q10101": 116, "q10102": 117, "q10103": 118, "q10104": 119, "q10105": 120, "q10106": 121, "q10107": 122, "q10108": 123, "q10109": 124, "q1011": 125, "q10110": 126, "q10111": 127, "q10112": 128, "q10113": 129, "q10114": 130, "q10115": 131, "q10116": 132, "q10117": 133, "q10118": 134, "q10119": 135, "q1012": 136, "q10120": 137, "q10121": 138, "q10122": 139, "q10123": 140, "q10124": 141, "q10125": 142, "q10126": 143, "q10127": 144, "q10128": 145, "q10129": 146, "q1013": 147, "q10130": 148, "q10131": 149, "q10132": 150, "q10133": 151, "q10134": 152, "q10135": 153, "q10136": 154, "q10137": 155, "q10138": 156, "q10139": 157, "q1014": 158, "q10140": 159, "q10141": 160, "q10142": 161, "q10143": 162, "q10144": 163, "q10145": 164, "q10146": 165, "q10147": 166, "q10148": 167, "q10149": 168, "q1015": 169, "q10150": 170, "q10151": 171, "q10152": 172, "q10153": 173, "q10154": 174, "q10155": 175, "q10156": 176, "q10157": 177, "q10158": 178, "q10159": 179, "q1016": 180, "q10160": 181, "q10161": 182, "q10162": 183, "q10163": 184, "q10164": 185, "q10165": 186, "q10166": 187, "q10167": 188, "q10168": 189, "q10169": 190, "q1017": 191, "q10170": 192, "q10171": 193, "q10172": 194, "q10173": 195, "q10174": 196, "q10175": 197, "q10176": 198, "q10177": 199, "q10179": 200, "q1018": 201, "q10180": 202, "q10181": 203, "q10182": 204, "q10183": 205, "q10184": 206, "q10185": 207, "q10186": 208, "q10187": 209, "q10188": 210, "q10189": 211, "q1019": 212, "q10190": 213, "q10191": 214, "q10192": 215, "q10193": 216, "q10194": 217, "q10195": 218, "q10196": 219, "q10197": 220, "q10198": 221, "q10199": 222, "q102": 223, "q1020": 224, "q10200": 225, "q10201": 226, "q10202": 227, "q10203": 228, "q10204": 229, "q10205": 230, "q10206": 231, "q10207": 232, "q10208": 233, "q10209": 234, "q1021": 235, "q10210": 236, "q10211": 237, "q10212": 238, "q10213": 239, "q10214": 240, "q10215": 241, "q10216": 242, "q10217": 243, "q10218": 244, "q10219": 245, "q1022": 246, "q10220": 247, "q10221": 248, "q10222": 249, "q10223": 250, "q10224": 251, "q10225": 252, "q10226": 253, "q10227": 254, "q10228": 255, "q10229": 256, "q1023": 257, "q10230": 258, "q10231": 259, "q10233": 260, "q10234": 261, "q10235": 262, "q10236": 263, "q10237": 264, "q10238": 265, "q10239": 266, "q1024": 267, "q10240": 268, "q10241": 269, "q10242": 270, "q10243": 271, "q10244": 272, "q10245": 273, "q10246": 274, "q10247": 275, "q10248": 276, "q10249": 277, "q1025": 278, "q10250": 279, "q10251": 280, "q10252": 281, "q10253": 282, "q10254": 283, "q10255": 284, "q10256": 285, "q10257": 286, "q10258": 287, "q10259": 288, "q1026": 289, "q10260": 290, "q10261": 291, "q10262": 292, "q10263": 293, "q10264": 294, "q10265": 295, "q10266": 296, "q10267": 297, "q10268": 298, "q10269": 299, "q10270": 300, "q10271": 301, "q10272": 302, "q10273": 303, "q10274": 304, "q10275": 305, "q10276": 306, "q10277": 307, "q10278": 308, "q10279": 309, "q1028": 310, "q10280": 311, "q10281": 312, "q10282": 313, "q10283": 314, "q10284": 315, "q10285": 316, "q10286": 317, "q10287": 318, "q10288": 319, "q10289": 320, "q1029": 321, "q10290": 322, "q10291": 323, "q10292": 324, "q10293": 325, "q10294": 326, "q10295": 327, "q10296": 328, "q10297": 329, "q10298": 330, "q10299": 331, "q103": 332, "q1030": 333, "q10300": 334, "q10301": 335, "q10302": 336, "q10303": 337, "q10304": 338, "q10305": 339, "q10306": 340, "q10308": 341, "q10309": 342, "q1031": 343, "q10310": 344, "q10311": 345, "q10312": 346, "q10313": 347, "q10314": 348, "q10315": 349, "q10316": 350, "q10317": 351, "q10318": 352, "q10319": 353, "q1032": 354, "q10320": 355, "q10321": 356, "q10322": 357, "q10323": 358, "q10324": 359, "q10325": 360, "q10326": 361, "q10327": 362, "q10328": 363, "q10329": 364, "q1033": 365, "q10330": 366, "q10331": 367, "q10332": 368, "q10333": 369, "q10334": 370, "q10335": 371, "q1034": 372, "q10344": 373, "q10345": 374, "q10346": 375, "q10347": 376, "q10348": 377, "q10349": 378, "q1035": 379, "q10350": 380, "q10351": 381, "q10352": 382, "q10353": 383, "q10354": 384, "q10355": 385, "q10356": 386, "q10357": 387, "q10358": 388, "q10359": 389, "q1036": 390, "q10360": 391, "q10361": 392, "q10362": 393, "q10363": 394, "q10364": 395, "q10365": 396, "q10366": 397, "q10367": 398, "q1037": 399, "q1038": 400, "q1039": 401, "q104": 402, "q1040": 403, "q1041": 404, "q1042": 405, "q1043": 406, "q1044": 407, "q1045": 408, "q1046": 409, "q1047": 410, "q1048": 411, "q1049": 412, "q105": 413, "q1050": 414, "q1051": 415, "q1052": 416, "q1053": 417, "q1054": 418, "q1055": 419, "q1056": 420, "q1057": 421, "q1058": 422, "q1059": 423, "q10598": 424, "q10599": 425, "q106": 426, "q1060": 427, "q10600": 428, "q10601": 429, "q10602": 430, "q10603": 431, "q10604": 432, "q10605": 433, "q10606": 434, "q10607": 435, "q10608": 436, "q10609": 437, "q1061": 438, "q10610": 439, "q10611": 440, "q10612": 441, "q10613": 442, "q10614": 443, "q10615": 444, "q10616": 445, "q10617": 446, "q10618": 447, "q10619": 448, "q1062": 449, "q10620": 450, "q10621": 451, "q10622": 452, "q10623": 453, "q10624": 454, "q10625": 455, "q10626": 456, "q10627": 457, "q10628": 458, "q10629": 459, "q1063": 460, "q10630": 461, "q10631": 462, "q10632": 463, "q10633": 464, "q10634": 465, "q10635": 466, "q10636": 467, "q10637": 468, "q10638": 469, "q10639": 470, "q1064": 471, "q10640": 472, "q10641": 473, "q10642": 474, "q10643": 475, "q10644": 476, "q10645": 477, "q10646": 478, "q10647": 479, "q10648": 480, "q10649": 481, "q1065": 482, "q10650": 483, "q10651": 484, "q10652": 485, "q10653": 486, "q10654": 487, "q10655": 488, "q10656": 489, "q10657": 490, "q10658": 491, "q10659": 492, "q1066": 493, "q10660": 494, "q10661": 495, "q10662": 496, "q10663": 497, "q10664": 498, "q10665": 499, "q10666": 500, "q10667": 501, "q10668": 502, "q10669": 503, "q1067": 504, "q10670": 505, "q10671": 506, "q10672": 507, "q10673": 508, "q10674": 509, "q10675": 510, "q10676": 511, "q10677": 512, "q10678": 513, "q10679": 514, "q1068": 515, "q10680": 516, "q10681": 517, "q10682": 518, "q10683": 519, "q10684": 520, "q10685": 521, "q10686": 522, "q10687": 523, "q10688": 524, "q10689": 525, "q1069": 526, "q10690": 527, "q10691": 528, "q10692": 529, "q10693": 530, "q10694": 531, "q10695": 532, "q10696": 533, "q10697": 534, "q10698": 535, "q10699": 536, "q107": 537, "q1070": 538, "q10700": 539, "q10701": 540, "q10702": 541, "q10703": 542, "q10704": 543, "q10705": 544, "q10706": 545, "q10707": 546, "q10708": 547, "q10709": 548, "q1071": 549, "q10710": 550, "q10711": 551, "q10712": 552, "q10713": 553, "q10714": 554, "q10715": 555, "q10716": 556, "q10717": 557, "q10718": 558, "q10719": 559, "q1072": 560, "q10720": 561, "q10721": 562, "q10722": 563, "q10723": 564, "q10724": 565, "q10725": 566, "q10726": 567, "q10727": 568, "q10728": 569, "q10729": 570, "q1073": 571, "q10730": 572, "q10731": 573, "q10732": 574, "q10733": 575, "q10734": 576, "q10735": 577, "q10736": 578, "q10737": 579, "q10738": 580, "q10739": 581, "q10740": 582, "q10741": 583, "q10742": 584, "q10743": 585, "q10744": 586, "q10745": 587, "q10746": 588, "q10747": 589, "q10748": 590, "q10749": 591, "q1075": 592, "q10750": 593, "q10751": 594, "q10752": 595, "q10753": 596, "q10754": 597, "q10755": 598, "q10756": 599, "q10757": 600, "q10758": 601, "q10759": 602, "q1076": 603, "q10760": 604, "q10761": 605, "q10762": 606, "q10763": 607, "q10764": 608, "q10765": 609, "q10766": 610, "q10767": 611, "q10768": 612, "q10769": 613, "q1077": 614, "q10770": 615, "q10771": 616, "q10772": 617, "q10773": 618, "q10774": 619, "q10775": 620, "q10776": 621, "q10777": 622, "q10778": 623, "q10779": 624, "q1078": 625, "q10780": 626, "q10781": 627, "q10782": 628, "q10783": 629, "q10784": 630, "q10785": 631, "q10786": 632, "q10787": 633, "q10788": 634, "q10789": 635, "q1079": 636, "q10790": 637, "q10791": 638, "q10792": 639, "q10793": 640, "q10794": 641, "q10795": 642, "q10796": 643, "q10797": 644, "q10798": 645, "q10799": 646, "q108": 647, "q1080": 648, "q10800": 649, "q10801": 650, "q10802": 651, "q10803": 652, "q10804": 653, "q10805": 654, "q10806": 655, "q10807": 656, "q10808": 657, "q10809": 658, "q1081": 659, "q10810": 660, "q10811": 661, "q10812": 662, "q10813": 663, "q10814": 664, "q10815": 665, "q10816": 666, "q10817": 667, "q10818": 668, "q10819": 669, "q1082": 670, "q10820": 671, "q10821": 672, "q10822": 673, "q10823": 674, "q10824": 675, "q10825": 676, "q10826": 677, "q10827": 678, "q10828": 679, "q10829": 680, "q1083": 681, "q10830": 682, "q10831": 683, "q10832": 684, "q10833": 685, "q10834": 686, "q10835": 687, "q10836": 688, "q10837": 689, "q10838": 690, "q10839": 691, "q1084": 692, "q10840": 693, "q10841": 694, "q10842": 695, "q10843": 696, "q10844": 697, "q10845": 698, "q10846": 699, "q10847": 700, "q10848": 701, "q10849": 702, "q1085": 703, "q10850": 704, "q10851": 705, "q10852": 706, "q10853": 707, "q10854": 708, "q10855": 709, "q10856": 710, "q10857": 711, "q10858": 712, "q10859": 713, "q1086": 714, "q10860": 715, "q10861": 716, "q10862": 717, "q10863": 718, "q10864": 719, "q10865": 720, "q10866": 721, "q10867": 722, "q10868": 723, "q10869": 724, "q1087": 725, "q10870": 726, "q10871": 727, "q10872": 728, "q10873": 729, "q10874": 730, "q10875": 731, "q10876": 732, "q10877": 733, "q10878": 734, "q10879": 735, "q1088": 736, "q10880": 737, "q10881": 738, "q10882": 739, "q10883": 740, "q10884": 741, "q10885": 742, "q10886": 743, "q10887": 744, "q10888": 745, "q10889": 746, "q1089": 747, "q10890": 748, "q10891": 749, "q10892": 750, "q10893": 751, "q10894": 752, "q10895": 753, "q10896": 754, "q10897": 755, "q10898": 756, "q10899": 757, "q109": 758, "q1090": 759, "q10900": 760, "q10901": 761, "q10902": 762, "q10903": 763, "q10904": 764, "q10905": 765, "q10906": 766, "q10907": 767, "q10908": 768, "q10909": 769, "q1091": 770, "q10910": 771, "q10911": 772, "q10912": 773, "q10913": 774, "q10914": 775, "q10915": 776, "q10916": 777, "q10917": 778, "q10918": 779, "q10919": 780, "q1092": 781, "q10920": 782, "q10921": 783, "q10922": 784, "q10923": 785, "q10924": 786, "q10925": 787, "q10926": 788, "q10927": 789, "q10928": 790, "q10929": 791, "q1093": 792, "q10930": 793, "q10931": 794, "q10932": 795, "q10933": 796, "q10934": 797, "q10935": 798, "q10936": 799, "q10937": 800, "q10938": 801, "q10939": 802, "q1094": 803, "q10940": 804, "q10941": 805, "q10942": 806, "q10943": 807, "q10944": 808, "q10945": 809, "q10946": 810, "q10947": 811, "q10948": 812, "q10949": 813, "q1095": 814, "q10950": 815, "q10951": 816, "q10952": 817, "q10953": 818, "q10954": 819, "q10955": 820, "q10956": 821, "q10957": 822, "q10959": 823, "q1096": 824, "q10960": 825, "q10961": 826, "q10962": 827, "q10963": 828, "q10964": 829, "q10965": 830, "q10966": 831, "q10967": 832, "q10968": 833, "q10969": 834, "q1097": 835, "q10970": 836, "q10971": 837, "q10972": 838, "q10973": 839, "q10974": 840, "q10975": 841, "q10976": 842, "q10977": 843, "q10978": 844, "q10979": 845, "q1098": 846, "q10980": 847, "q10981": 848, "q10982": 849, "q10983": 850, "q10984": 851, "q10985": 852, "q10986": 853, "q10987": 854, "q10988": 855, "q10989": 856, "q1099": 857, "q10990": 858, "q10991": 859, "q10992": 860, "q10993": 861, "q10994": 862, "q10995": 863, "q10996": 864, "q10997": 865, "q10998": 866, "q10999": 867, "q11": 868, "q110": 869, "q1100": 870, "q11000": 871, "q11001": 872, "q11002": 873, "q11003": 874, "q11004": 875, "q11005": 876, "q11006": 877, "q11007": 878, "q11008": 879, "q11009": 880, "q1101": 881, "q11010": 882, "q11011": 883, "q11012": 884, "q11013": 885, "q11014": 886, "q11015": 887, "q11016": 888, "q11017": 889, "q11018": 890, "q11019": 891, "q1102": 892, "q11020": 893, "q11021": 894, "q11022": 895, "q11023": 896, "q11024": 897, "q11025": 898, "q11026": 899, "q11027": 900, "q11028": 901, "q11029": 902, "q1103": 903, "q11030": 904, "q11031": 905, "q11032": 906, "q11033": 907, "q11034": 908, "q11035": 909, "q11036": 910, "q11037": 911, "q11038": 912, "q11039": 913, "q1104": 914, "q11040": 915, "q11041": 916, "q11042": 917, "q11043": 918, "q11044": 919, "q11045": 920, "q11046": 921, "q11047": 922, "q11048": 923, "q11049": 924, "q1105": 925, "q11050": 926, "q11051": 927, "q11052": 928, "q11053": 929, "q11054": 930, "q11055": 931, "q11056": 932, "q11057": 933, "q11058": 934, "q11059": 935, "q1106": 936, "q11060": 937, "q11061": 938, "q11062": 939, "q11063": 940, "q11064": 941, "q11065": 942, "q11066": 943, "q11067": 944, "q11068": 945, "q11069": 946, "q1107": 947, "q11070": 948, "q11071": 949, "q11072": 950, "q11073": 951, "q11074": 952, "q11075": 953, "q11076": 954, "q11077": 955, "q11078": 956, "q11079": 957, "q1108": 958, "q11080": 959, "q11081": 960, "q11082": 961, "q11083": 962, "q11084": 963, "q11085": 964, "q11086": 965, "q11087": 966, "q11088": 967, "q11089": 968, "q1109": 969, "q11090": 970, "q11091": 971, "q11092": 972, "q11093": 973, "q11094": 974, "q11095": 975, "q11096": 976, "q11097": 977, "q11098": 978, "q11099": 979, "q111": 980, "q1110": 981, "q11100": 982, "q11101": 983, "q11102": 984, "q11103": 985, "q11104": 986, "q11105": 987, "q11106": 988, "q11107": 989, "q11108": 990, "q11109": 991, "q1111": 992, "q11110": 993, "q11111": 994, "q11112": 995, "q11113": 996, "q11114": 997, "q11115": 998, "q11116": 999, "q11117": 1000, "q11118": 1001, "q11119": 1002, "q1112": 1003, "q11120": 1004, "q11121": 1005, "q11122": 1006, "q11123": 1007, "q11124": 1008, "q11125": 1009, "q11126": 1010, "q11127": 1011, "q11128": 1012, "q11129": 1013, "q1113": 1014, "q11130": 1015, "q11131": 1016, "q11132": 1017, "q11133": 1018, "q11134": 1019, "q11135": 1020, "q11136": 1021, "q11137": 1022, "q11138": 1023, "q11139": 1024, "q1114": 1025, "q11140": 1026, "q11141": 1027, "q11142": 1028, "q11143": 1029, "q11144": 1030, "q11145": 1031, "q11146": 1032, "q11147": 1033, "q11148": 1034, "q11149": 1035, "q1115": 1036, "q11150": 1037, "q11151": 1038, "q11152": 1039, "q11153": 1040, "q11154": 1041, "q11155": 1042, "q11156": 1043, "q11157": 1044, "q11158": 1045, "q11159": 1046, "q1116": 1047, "q11160": 1048, "q11161": 1049, "q11162": 1050, "q11163": 1051, "q11164": 1052, "q11165": 1053, "q11166": 1054, "q11167": 1055, "q11168": 1056, "q11169": 1057, "q1117": 1058, "q11170": 1059, "q11171": 1060, "q11172": 1061, "q11173": 1062, "q11174": 1063, "q11175": 1064, "q11176": 1065, "q11177": 1066, "q11178": 1067, "q11179": 1068, "q1118": 1069, "q11180": 1070, "q11181": 1071, "q11182": 1072, "q11183": 1073, "q11184": 1074, "q11185": 1075, "q11186": 1076, "q11187": 1077, "q11188": 1078, "q11189": 1079, "q1119": 1080, "q11190": 1081, "q11191": 1082, "q11192": 1083, "q11193": 1084, "q11194": 1085, "q11195": 1086, "q11196": 1087, "q11197": 1088, "q11198": 1089, "q11199": 1090, "q112": 1091, "q1120": 1092, "q11200": 1093, "q11201": 1094, "q11202": 1095, "q11203": 1096, "q11204": 1097, "q11205": 1098, "q11206": 1099, "q11207": 1100, "q11208": 1101, "q11209": 1102, "q1121": 1103, "q11210": 1104, "q11211": 1105, "q11212": 1106, "q11213": 1107, "q11214": 1108, "q11215": 1109, "q11216": 1110, "q11217": 1111, "q11218": 1112, "q11219": 1113, "q1122": 1114, "q11220": 1115, "q11221": 1116, "q11222": 1117, "q11223": 1118, "q11224": 1119, "q11225": 1120, "q11226": 1121, "q11227": 1122, "q11228": 1123, "q11229": 1124, "q1123": 1125, "q11230": 1126, "q11231": 1127, "q11232": 1128, "q11233": 1129, "q11234": 1130, "q11235": 1131, "q11236": 1132, "q11237": 1133, "q11238": 1134, "q11239": 1135, "q1124": 1136, "q11240": 1137, "q11241": 1138, "q11242": 1139, "q11243": 1140, "q11244": 1141, "q11245": 1142, "q11246": 1143, "q11247": 1144, "q11248": 1145, "q11249": 1146, "q1125": 1147, "q11259": 1148, "q1126": 1149, "q11261": 1150, "q11262": 1151, "q11263": 1152, "q11269": 1153, "q11270": 1154, "q11271": 1155, "q11272": 1156, "q11273": 1157, "q11274": 1158, "q11275": 1159, "q11276": 1160, "q11277": 1161, "q11278": 1162, "q11279": 1163, "q1128": 1164, "q11280": 1165, "q11281": 1166, "q11282": 1167, "q11283": 1168, "q11284": 1169, "q11285": 1170, "q11286": 1171, "q11287": 1172, "q11288": 1173, "q11289": 1174, "q1129": 1175, "q11290": 1176, "q11291": 1177, "q11292": 1178, "q11293": 1179, "q11294": 1180, "q11295": 1181, "q11296": 1182, "q11297": 1183, "q11298": 1184, "q11299": 1185, "q113": 1186, "q1130": 1187, "q11300": 1188, "q11301": 1189, "q11302": 1190, "q11303": 1191, "q11304": 1192, "q11305": 1193, "q11306": 1194, "q11307": 1195, "q11308": 1196, "q11309": 1197, "q1131": 1198, "q11310": 1199, "q11311": 1200, "q11312": 1201, "q11313": 1202, "q11314": 1203, "q11315": 1204, "q11316": 1205, "q11317": 1206, "q11318": 1207, "q11319": 1208, "q1132": 1209, "q11320": 1210, "q11321": 1211, "q11322": 1212, "q1133": 1213, "q1134": 1214, "q1135": 1215, "q1136": 1216, "q1137": 1217, "q1138": 1218, "q1139": 1219, "q114": 1220, "q1140": 1221, "q1141": 1222, "q1142": 1223, "q1143": 1224, "q1144": 1225, "q1145": 1226, "q1146": 1227, "q1147": 1228, "q1148": 1229, "q1149": 1230, "q115": 1231, "q1150": 1232, "q1151": 1233, "q1152": 1234, "q11523": 1235, "q11524": 1236, "q11525": 1237, "q11526": 1238, "q11527": 1239, "q11528": 1240, "q11529": 1241, "q1153": 1242, "q11530": 1243, "q11531": 1244, "q11532": 1245, "q11533": 1246, "q11534": 1247, "q11535": 1248, "q11536": 1249, "q11537": 1250, "q11538": 1251, "q11539": 1252, "q1154": 1253, "q11540": 1254, "q11541": 1255, "q11542": 1256, "q11543": 1257, "q11544": 1258, "q11545": 1259, "q11546": 1260, "q11547": 1261, "q11548": 1262, "q11549": 1263, "q1155": 1264, "q11550": 1265, "q11551": 1266, "q11552": 1267, "q11553": 1268, "q11554": 1269, "q11555": 1270, "q11556": 1271, "q11557": 1272, "q11558": 1273, "q11559": 1274, "q1156": 1275, "q11560": 1276, "q11561": 1277, "q11562": 1278, "q11563": 1279, "q11564": 1280, "q11565": 1281, "q11566": 1282, "q11567": 1283, "q11568": 1284, "q11569": 1285, "q1157": 1286, "q11570": 1287, "q11571": 1288, "q11572": 1289, "q11573": 1290, "q11574": 1291, "q11575": 1292, "q11576": 1293, "q11577": 1294, "q11578": 1295, "q11579": 1296, "q1158": 1297, "q11580": 1298, "q11581": 1299, "q11582": 1300, "q11583": 1301, "q11584": 1302, "q11585": 1303, "q11586": 1304, "q11587": 1305, "q11588": 1306, "q11589": 1307, "q1159": 1308, "q11590": 1309, "q11591": 1310, "q11592": 1311, "q11593": 1312, "q11594": 1313, "q11595": 1314, "q11596": 1315, "q11597": 1316, "q11598": 1317, "q11599": 1318, "q116": 1319, "q1160": 1320, "q11600": 1321, "q11601": 1322, "q11602": 1323, "q11603": 1324, "q11604": 1325, "q11605": 1326, "q11606": 1327, "q11607": 1328, "q11608": 1329, "q11609": 1330, "q1161": 1331, "q11610": 1332, "q11611": 1333, "q11612": 1334, "q11613": 1335, "q11614": 1336, "q11615": 1337, "q11616": 1338, "q11617": 1339, "q11618": 1340, "q11619": 1341, "q1162": 1342, "q11620": 1343, "q11621": 1344, "q11622": 1345, "q11623": 1346, "q11624": 1347, "q11625": 1348, "q11626": 1349, "q11627": 1350, "q11628": 1351, "q11629": 1352, "q1163": 1353, "q11630": 1354, "q11631": 1355, "q11632": 1356, "q11633": 1357, "q11634": 1358, "q11635": 1359, "q11636": 1360, "q11637": 1361, "q11638": 1362, "q11639": 1363, "q1164": 1364, "q11640": 1365, "q11641": 1366, "q11642": 1367, "q11643": 1368, "q11644": 1369, "q11645": 1370, "q11646": 1371, "q11647": 1372, "q11648": 1373, "q11649": 1374, "q1165": 1375, "q11650": 1376, "q11651": 1377, "q11652": 1378, "q11653": 1379, "q11654": 1380, "q11655": 1381, "q11656": 1382, "q11657": 1383, "q11658": 1384, "q11659": 1385, "q1166": 1386, "q11660": 1387, "q11661": 1388, "q11662": 1389, "q11663": 1390, "q11664": 1391, "q11665": 1392, "q11666": 1393, "q11667": 1394, "q11668": 1395, "q11669": 1396, "q1167": 1397, "q11670": 1398, "q11671": 1399, "q11672": 1400, "q11673": 1401, "q11674": 1402, "q11675": 1403, "q11676": 1404, "q11677": 1405, "q11678": 1406, "q11679": 1407, "q1168": 1408, "q11680": 1409, "q11681": 1410, "q11682": 1411, "q11683": 1412, "q11684": 1413, "q11685": 1414, "q11686": 1415, "q11687": 1416, "q11688": 1417, "q11689": 1418, "q1169": 1419, "q11690": 1420, "q11691": 1421, "q11692": 1422, "q11693": 1423, "q11694": 1424, "q11695": 1425, "q11696": 1426, "q11697": 1427, "q11698": 1428, "q11699": 1429, "q117": 1430, "q1170": 1431, "q11700": 1432, "q11701": 1433, "q11702": 1434, "q11703": 1435, "q11704": 1436, "q11705": 1437, "q11706": 1438, "q11707": 1439, "q11708": 1440, "q11709": 1441, "q1171": 1442, "q11710": 1443, "q11711": 1444, "q11712": 1445, "q11713": 1446, "q11714": 1447, "q11715": 1448, "q11716": 1449, "q11717": 1450, "q11718": 1451, "q11719": 1452, "q1172": 1453, "q11720": 1454, "q11721": 1455, "q11722": 1456, "q11723": 1457, "q11724": 1458, "q11725": 1459, "q11726": 1460, "q11727": 1461, "q11728": 1462, "q11729": 1463, "q1173": 1464, "q11730": 1465, "q11731": 1466, "q11732": 1467, "q11733": 1468, "q11734": 1469, "q11735": 1470, "q11736": 1471, "q11737": 1472, "q11738": 1473, "q11739": 1474, "q1174": 1475, "q11740": 1476, "q11741": 1477, "q11742": 1478, "q11743": 1479, "q11744": 1480, "q11745": 1481, "q11746": 1482, "q11747": 1483, "q11748": 1484, "q11749": 1485, "q1175": 1486, "q11750": 1487, "q11751": 1488, "q11752": 1489, "q11753": 1490, "q11754": 1491, "q11755": 1492, "q11756": 1493, "q11757": 1494, "q11758": 1495, "q11759": 1496, "q1176": 1497, "q11760": 1498, "q11761": 1499, "q11762": 1500, "q11763": 1501, "q11764": 1502, "q11765": 1503, "q11766": 1504, "q11767": 1505, "q11768": 1506, "q11769": 1507, "q1177": 1508, "q11770": 1509, "q11771": 1510, "q11772": 1511, "q11773": 1512, "q11774": 1513, "q11775": 1514, "q11776": 1515, "q11777": 1516, "q11778": 1517, "q11779": 1518, "q1178": 1519, "q11780": 1520, "q11781": 1521, "q11782": 1522, "q11783": 1523, "q11784": 1524, "q11785": 1525, "q11786": 1526, "q11787": 1527, "q11788": 1528, "q11789": 1529, "q1179": 1530, "q11790": 1531, "q11791": 1532, "q11792": 1533, "q11793": 1534, "q11794": 1535, "q11795": 1536, "q11796": 1537, "q11797": 1538, "q11798": 1539, "q11799": 1540, "q118": 1541, "q1180": 1542, "q11800": 1543, "q11801": 1544, "q11802": 1545, "q11803": 1546, "q11804": 1547, "q11805": 1548, "q11806": 1549, "q11807": 1550, "q11808": 1551, "q11809": 1552, "q1181": 1553, "q11810": 1554, "q11811": 1555, "q11812": 1556, "q11813": 1557, "q11814": 1558, "q11815": 1559, "q11816": 1560, "q11817": 1561, "q11818": 1562, "q11819": 1563, "q1182": 1564, "q11820": 1565, "q11821": 1566, "q11822": 1567, "q11823": 1568, "q11824": 1569, "q11825": 1570, "q11826": 1571, "q11827": 1572, "q11828": 1573, "q11829": 1574, "q1183": 1575, "q11830": 1576, "q11831": 1577, "q11832": 1578, "q11833": 1579, "q11834": 1580, "q11835": 1581, "q11836": 1582, "q11837": 1583, "q11838": 1584, "q11839": 1585, "q1184": 1586, "q11840": 1587, "q11841": 1588, "q11842": 1589, "q11843": 1590, "q11844": 1591, "q11845": 1592, "q11846": 1593, "q11847": 1594, "q11848": 1595, "q11849": 1596, "q1185": 1597, "q11850": 1598, "q11851": 1599, "q11852": 1600, "q11853": 1601, "q11854": 1602, "q11855": 1603, "q11856": 1604, "q11857": 1605, "q11858": 1606, "q11859": 1607, "q1186": 1608, "q11860": 1609, "q11861": 1610, "q11862": 1611, "q11863": 1612, "q11864": 1613, "q11865": 1614, "q11866": 1615, "q11867": 1616, "q11868": 1617, "q11869": 1618, "q1187": 1619, "q11870": 1620, "q11871": 1621, "q11872": 1622, "q11873": 1623, "q11874": 1624, "q11875": 1625, "q11876": 1626, "q11877": 1627, "q11878": 1628, "q11879": 1629, "q1188": 1630, "q11880": 1631, "q11881": 1632, "q11882": 1633, "q11883": 1634, "q11884": 1635, "q11885": 1636, "q11886": 1637, "q11887": 1638, "q11888": 1639, "q11889": 1640, "q1189": 1641, "q11890": 1642, "q11891": 1643, "q11892": 1644, "q11893": 1645, "q11894": 1646, "q11895": 1647, "q11896": 1648, "q11897": 1649, "q11898": 1650, "q11899": 1651, "q119": 1652, "q1190": 1653, "q11900": 1654, "q11901": 1655, "q11902": 1656, "q11903": 1657, "q11904": 1658, "q11905": 1659, "q11906": 1660, "q11907": 1661, "q11908": 1662, "q11909": 1663, "q1191": 1664, "q11910": 1665, "q11911": 1666, "q11912": 1667, "q11913": 1668, "q11914": 1669, "q11915": 1670, "q11916": 1671, "q11917": 1672, "q11918": 1673, "q11919": 1674, "q1192": 1675, "q11920": 1676, "q11921": 1677, "q11922": 1678, "q11923": 1679, "q11924": 1680, "q11925": 1681, "q11926": 1682, "q11927": 1683, "q11928": 1684, "q11929": 1685, "q1193": 1686, "q11930": 1687, "q11931": 1688, "q11932": 1689, "q11933": 1690, "q11934": 1691, "q11935": 1692, "q11936": 1693, "q11937": 1694, "q11938": 1695, "q11939": 1696, "q1194": 1697, "q11940": 1698, "q11941": 1699, "q11942": 1700, "q11943": 1701, "q11944": 1702, "q11945": 1703, "q11946": 1704, "q11947": 1705, "q11948": 1706, "q11949": 1707, "q1195": 1708, "q11950": 1709, "q11951": 1710, "q11952": 1711, "q11953": 1712, "q11954": 1713, "q11955": 1714, "q11956": 1715, "q11957": 1716, "q11958": 1717, "q11959": 1718, "q1196": 1719, "q11960": 1720, "q11961": 1721, "q11962": 1722, "q1197": 1723, "q1198": 1724, "q1199": 1725, "q12": 1726, "q120": 1727, "q1200": 1728, "q1201": 1729, "q1202": 1730, "q1203": 1731, "q1204": 1732, "q1205": 1733, "q1206": 1734, "q1207": 1735, "q1208": 1736, "q1209": 1737, "q121": 1738, "q1210": 1739, "q1211": 1740, "q1212": 1741, "q1213": 1742, "q1214": 1743, "q1215": 1744, "q1216": 1745, "q1217": 1746, "q1218": 1747, "q1219": 1748, "q122": 1749, "q1220": 1750, "q1221": 1751, "q1222": 1752, "q1223": 1753, "q1224": 1754, "q1225": 1755, "q1226": 1756, "q1227": 1757, "q1228": 1758, "q1229": 1759, "q123": 1760, "q1230": 1761, "q1231": 1762, "q1232": 1763, "q1233": 1764, "q1234": 1765, "q1235": 1766, "q1236": 1767, "q1237": 1768, "q1238": 1769, "q1239": 1770, "q124": 1771, "q1240": 1772, "q1241": 1773, "q1242": 1774, "q1243": 1775, "q1244": 1776, "q1245": 1777, "q1246": 1778, "q1247": 1779, "q1248": 1780, "q1249": 1781, "q125": 1782, "q1250": 1783, "q1251": 1784, "q1252": 1785, "q1253": 1786, "q1254": 1787, "q1255": 1788, "q1256": 1789, "q1257": 1790, "q1258": 1791, "q1259": 1792, "q126": 1793, "q1260": 1794, "q1261": 1795, "q1262": 1796, "q1263": 1797, "q1264": 1798, "q1265": 1799, "q1266": 1800, "q1267": 1801, "q1268": 1802, "q1269": 1803, "q127": 1804, "q1270": 1805, "q1271": 1806, "q1272": 1807, "q1273": 1808, "q1274": 1809, "q1275": 1810, "q1276": 1811, "q1277": 1812, "q1278": 1813, "q1279": 1814, "q128": 1815, "q1280": 1816, "q1281": 1817, "q1282": 1818, "q1283": 1819, "q1284": 1820, "q1285": 1821, "q1286": 1822, "q1287": 1823, "q1288": 1824, "q1289": 1825, "q129": 1826, "q1290": 1827, "q1291": 1828, "q1292": 1829, "q1293": 1830, "q1294": 1831, "q1295": 1832, "q1296": 1833, "q1297": 1834, "q1298": 1835, "q1299": 1836, "q13": 1837, "q130": 1838, "q1300": 1839, "q1301": 1840, "q1302": 1841, "q1303": 1842, "q1304": 1843, "q1305": 1844, "q1306": 1845, "q1307": 1846, "q1308": 1847, "q131": 1848, "q1310": 1849, "q1311": 1850, "q1312": 1851, "q1313": 1852, "q1314": 1853, "q1315": 1854, "q1316": 1855, "q1317": 1856, "q1318": 1857, "q1319": 1858, "q132": 1859, "q1320": 1860, "q1321": 1861, "q1322": 1862, "q1323": 1863, "q1324": 1864, "q1325": 1865, "q1326": 1866, "q1327": 1867, "q1328": 1868, "q1329": 1869, "q133": 1870, "q1330": 1871, "q1331": 1872, "q1332": 1873, "q1333": 1874, "q1334": 1875, "q1335": 1876, "q1336": 1877, "q1337": 1878, "q1338": 1879, "q1339": 1880, "q134": 1881, "q1340": 1882, "q1341": 1883, "q1342": 1884, "q1343": 1885, "q1344": 1886, "q1345": 1887, "q1346": 1888, "q1347": 1889, "q1348": 1890, "q1349": 1891, "q135": 1892, "q1350": 1893, "q1351": 1894, "q1352": 1895, "q1353": 1896, "q1354": 1897, "q1355": 1898, "q1356": 1899, "q1357": 1900, "q1358": 1901, "q1359": 1902, "q136": 1903, "q1360": 1904, "q1361": 1905, "q1362": 1906, "q1363": 1907, "q1364": 1908, "q1365": 1909, "q1366": 1910, "q1367": 1911, "q1368": 1912, "q1369": 1913, "q137": 1914, "q1370": 1915, "q1371": 1916, "q1372": 1917, "q1373": 1918, "q1374": 1919, "q1375": 1920, "q1376": 1921, "q1377": 1922, "q1378": 1923, "q1379": 1924, "q138": 1925, "q1380": 1926, "q1381": 1927, "q1382": 1928, "q1383": 1929, "q1384": 1930, "q1385": 1931, "q1386": 1932, "q1387": 1933, "q1388": 1934, "q1389": 1935, "q139": 1936, "q1390": 1937, "q1391": 1938, "q1392": 1939, "q1393": 1940, "q1394": 1941, "q1395": 1942, "q1396": 1943, "q1397": 1944, "q1398": 1945, "q1399": 1946, "q14": 1947, "q140": 1948, "q1400": 1949, "q1401": 1950, "q1402": 1951, "q1403": 1952, "q1404": 1953, "q1405": 1954, "q1406": 1955, "q1407": 1956, "q1408": 1957, "q1409": 1958, "q141": 1959, "q1410": 1960, "q1411": 1961, "q1412": 1962, "q1413": 1963, "q1414": 1964, "q1415": 1965, "q1416": 1966, "q1417": 1967, "q1418": 1968, "q1419": 1969, "q142": 1970, "q1420": 1971, "q1421": 1972, "q1422": 1973, "q1423": 1974, "q1424": 1975, "q1428": 1976, "q1429": 1977, "q143": 1978, "q1430": 1979, "q1431": 1980, "q1432": 1981, "q1433": 1982, "q1434": 1983, "q1435": 1984, "q1436": 1985, "q1437": 1986, "q1438": 1987, "q1439": 1988, "q144": 1989, "q1440": 1990, "q1441": 1991, "q1442": 1992, "q1443": 1993, "q1444": 1994, "q1445": 1995, "q1446": 1996, "q1447": 1997, "q1448": 1998, "q1449": 1999, "q145": 2000, "q1450": 2001, "q1451": 2002, "q1452": 2003, "q1453": 2004, "q1454": 2005, "q1455": 2006, "q1456": 2007, "q1457": 2008, "q1458": 2009, "q1459": 2010, "q146": 2011, "q1460": 2012, "q1461": 2013, "q1462": 2014, "q1463": 2015, "q1464": 2016, "q1465": 2017, "q1466": 2018, "q1467": 2019, "q1468": 2020, "q1469": 2021, "q147": 2022, "q1470": 2023, "q1471": 2024, "q1472": 2025, "q1473": 2026, "q1474": 2027, "q1475": 2028, "q1476": 2029, "q1477": 2030, "q1478": 2031, "q1479": 2032, "q148": 2033, "q1480": 2034, "q1481": 2035, "q1482": 2036, "q1483": 2037, "q1484": 2038, "q1485": 2039, "q1486": 2040, "q1487": 2041, "q149": 2042, "q1491": 2043, "q1492": 2044, "q1493": 2045, "q1494": 2046, "q1495": 2047, "q1496": 2048, "q1497": 2049, "q1498": 2050, "q1499": 2051, "q15": 2052, "q150": 2053, "q1500": 2054, "q1501": 2055, "q1502": 2056, "q1503": 2057, "q1504": 2058, "q1505": 2059, "q1506": 2060, "q1507": 2061, "q1508": 2062, "q1509": 2063, "q151": 2064, "q1510": 2065, "q1511": 2066, "q1512": 2067, "q1513": 2068, "q1514": 2069, "q1515": 2070, "q1516": 2071, "q1517": 2072, "q1518": 2073, "q1519": 2074, "q152": 2075, "q1520": 2076, "q1521": 2077, "q1522": 2078, "q1523": 2079, "q1524": 2080, "q1525": 2081, "q1526": 2082, "q1527": 2083, "q1528": 2084, "q1529": 2085, "q153": 2086, "q1530": 2087, "q1531": 2088, "q1532": 2089, "q1533": 2090, "q1534": 2091, "q1535": 2092, "q1536": 2093, "q1537": 2094, "q1538": 2095, "q1539": 2096, "q154": 2097, "q1540": 2098, "q1541": 2099, "q1542": 2100, "q1543": 2101, "q1544": 2102, "q1545": 2103, "q1546": 2104, "q1547": 2105, "q1548": 2106, "q1549": 2107, "q155": 2108, "q1550": 2109, "q1551": 2110, "q1552": 2111, "q1553": 2112, "q1554": 2113, "q1555": 2114, "q1556": 2115, "q1557": 2116, "q1558": 2117, "q1559": 2118, "q156": 2119, "q1560": 2120, "q1561": 2121, "q1562": 2122, "q1563": 2123, "q1564": 2124, "q1565": 2125, "q1566": 2126, "q1567": 2127, "q1568": 2128, "q1569": 2129, "q157": 2130, "q1570": 2131, "q1571": 2132, "q1572": 2133, "q1573": 2134, "q1574": 2135, "q1575": 2136, "q1576": 2137, "q1577": 2138, "q1578": 2139, "q1579": 2140, "q158": 2141, "q1580": 2142, "q1581": 2143, "q1582": 2144, "q1583": 2145, "q1584": 2146, "q1585": 2147, "q1586": 2148, "q1587": 2149, "q1588": 2150, "q1589": 2151, "q159": 2152, "q1590": 2153, "q1591": 2154, "q1592": 2155, "q1593": 2156, "q1594": 2157, "q1595": 2158, "q1596": 2159, "q1597": 2160, "q1598": 2161, "q1599": 2162, "q16": 2163, "q160": 2164, "q1600": 2165, "q1601": 2166, "q1602": 2167, "q1603": 2168, "q1604": 2169, "q1605": 2170, "q1606": 2171, "q1607": 2172, "q1608": 2173, "q1609": 2174, "q161": 2175, "q1610": 2176, "q1611": 2177, "q1612": 2178, "q1613": 2179, "q1614": 2180, "q1615": 2181, "q1616": 2182, "q1617": 2183, "q1618": 2184, "q1619": 2185, "q162": 2186, "q1620": 2187, "q1621": 2188, "q1622": 2189, "q1623": 2190, "q1624": 2191, "q1625": 2192, "q1626": 2193, "q1627": 2194, "q1628": 2195, "q1629": 2196, "q163": 2197, "q1630": 2198, "q1631": 2199, "q1632": 2200, "q1633": 2201, "q1634": 2202, "q1635": 2203, "q1636": 2204, "q1637": 2205, "q1638": 2206, "q1639": 2207, "q164": 2208, "q1640": 2209, "q1641": 2210, "q1642": 2211, "q1643": 2212, "q1644": 2213, "q1645": 2214, "q1646": 2215, "q1647": 2216, "q1648": 2217, "q1649": 2218, "q165": 2219, "q1650": 2220, "q1651": 2221, "q1652": 2222, "q1653": 2223, "q1654": 2224, "q1655": 2225, "q1656": 2226, "q1657": 2227, "q1658": 2228, "q1659": 2229, "q166": 2230, "q1660": 2231, "q1661": 2232, "q1662": 2233, "q1663": 2234, "q1664": 2235, "q1665": 2236, "q1666": 2237, "q1667": 2238, "q1668": 2239, "q1669": 2240, "q167": 2241, "q1670": 2242, "q1671": 2243, "q1672": 2244, "q1673": 2245, "q1674": 2246, "q1675": 2247, "q1676": 2248, "q1677": 2249, "q1678": 2250, "q1679": 2251, "q168": 2252, "q1680": 2253, "q1681": 2254, "q1682": 2255, "q1683": 2256, "q1684": 2257, "q1685": 2258, "q1686": 2259, "q1687": 2260, "q1688": 2261, "q1689": 2262, "q169": 2263, "q1690": 2264, "q1691": 2265, "q1692": 2266, "q1693": 2267, "q1694": 2268, "q1695": 2269, "q1696": 2270, "q16961": 2271, "q16962": 2272, "q16963": 2273, "q1697": 2274, "q1698": 2275, "q1699": 2276, "q17": 2277, "q170": 2278, "q1700": 2279, "q1701": 2280, "q1702": 2281, "q1703": 2282, "q1704": 2283, "q17042": 2284, "q17043": 2285, "q17044": 2286, "q17045": 2287, "q17046": 2288, "q17047": 2289, "q17048": 2290, "q17049": 2291, "q1705": 2292, "q17050": 2293, "q17051": 2294, "q17052": 2295, "q17053": 2296, "q17054": 2297, "q17055": 2298, "q17056": 2299, "q17057": 2300, "q17058": 2301, "q17059": 2302, "q1706": 2303, "q17060": 2304, "q17061": 2305, "q17062": 2306, "q17063": 2307, "q17064": 2308, "q17065": 2309, "q17066": 2310, "q17067": 2311, "q17068": 2312, "q17069": 2313, "q1707": 2314, "q17070": 2315, "q17071": 2316, "q17072": 2317, "q17073": 2318, "q17074": 2319, "q17075": 2320, "q17076": 2321, "q17077": 2322, "q17078": 2323, "q17079": 2324, "q1708": 2325, "q17080": 2326, "q17081": 2327, "q17082": 2328, "q17083": 2329, "q17084": 2330, "q17085": 2331, "q17086": 2332, "q17087": 2333, "q17088": 2334, "q17089": 2335, "q1709": 2336, "q17090": 2337, "q17091": 2338, "q17092": 2339, "q17093": 2340, "q17094": 2341, "q17095": 2342, "q17096": 2343, "q17097": 2344, "q17098": 2345, "q17099": 2346, "q171": 2347, "q1710": 2348, "q17100": 2349, "q17101": 2350, "q17102": 2351, "q17103": 2352, "q17104": 2353, "q17105": 2354, "q17106": 2355, "q17107": 2356, "q17108": 2357, "q17109": 2358, "q1711": 2359, "q17110": 2360, "q17111": 2361, "q17112": 2362, "q17113": 2363, "q17114": 2364, "q17115": 2365, "q17116": 2366, "q17117": 2367, "q17118": 2368, "q17119": 2369, "q1712": 2370, "q17120": 2371, "q17121": 2372, "q17122": 2373, "q17123": 2374, "q17124": 2375, "q17125": 2376, "q17126": 2377, "q17127": 2378, "q17128": 2379, "q17129": 2380, "q1713": 2381, "q17130": 2382, "q17131": 2383, "q17132": 2384, "q17133": 2385, "q17134": 2386, "q17135": 2387, "q17136": 2388, "q17137": 2389, "q17138": 2390, "q17139": 2391, "q1714": 2392, "q17140": 2393, "q17141": 2394, "q17142": 2395, "q17143": 2396, "q17144": 2397, "q17145": 2398, "q17146": 2399, "q17147": 2400, "q17148": 2401, "q17149": 2402, "q1715": 2403, "q17150": 2404, "q17151": 2405, "q17152": 2406, "q17153": 2407, "q17154": 2408, "q17155": 2409, "q17156": 2410, "q17157": 2411, "q17158": 2412, "q17159": 2413, "q1716": 2414, "q17160": 2415, "q17161": 2416, "q17162": 2417, "q17163": 2418, "q17164": 2419, "q17165": 2420, "q17166": 2421, "q17167": 2422, "q17168": 2423, "q17169": 2424, "q1717": 2425, "q17170": 2426, "q17171": 2427, "q17172": 2428, "q17173": 2429, "q17174": 2430, "q17175": 2431, "q17176": 2432, "q17177": 2433, "q17178": 2434, "q17179": 2435, "q1718": 2436, "q17180": 2437, "q17181": 2438, "q17182": 2439, "q17183": 2440, "q17184": 2441, "q17185": 2442, "q17186": 2443, "q17187": 2444, "q17188": 2445, "q17189": 2446, "q1719": 2447, "q17190": 2448, "q17191": 2449, "q17192": 2450, "q17193": 2451, "q17194": 2452, "q17195": 2453, "q17196": 2454, "q17197": 2455, "q17198": 2456, "q17199": 2457, "q172": 2458, "q1720": 2459, "q17200": 2460, "q17201": 2461, "q17202": 2462, "q17203": 2463, "q17204": 2464, "q17205": 2465, "q17206": 2466, "q17207": 2467, "q17208": 2468, "q17209": 2469, "q1721": 2470, "q17210": 2471, "q17211": 2472, "q17212": 2473, "q17213": 2474, "q17214": 2475, "q17215": 2476, "q17216": 2477, "q17217": 2478, "q17218": 2479, "q17219": 2480, "q1722": 2481, "q17220": 2482, "q17221": 2483, "q17222": 2484, "q17223": 2485, "q17224": 2486, "q17225": 2487, "q17226": 2488, "q17227": 2489, "q17228": 2490, "q17229": 2491, "q1723": 2492, "q17230": 2493, "q17231": 2494, "q17232": 2495, "q17233": 2496, "q17234": 2497, "q17235": 2498, "q17236": 2499, "q17237": 2500, "q17238": 2501, "q17239": 2502, "q1724": 2503, "q17240": 2504, "q17241": 2505, "q17242": 2506, "q17243": 2507, "q17244": 2508, "q17245": 2509, "q17246": 2510, "q17247": 2511, "q17248": 2512, "q17249": 2513, "q1725": 2514, "q17250": 2515, "q17251": 2516, "q17252": 2517, "q17253": 2518, "q17254": 2519, "q17255": 2520, "q17256": 2521, "q17257": 2522, "q17258": 2523, "q17259": 2524, "q1726": 2525, "q17260": 2526, "q17261": 2527, "q17262": 2528, "q17263": 2529, "q17264": 2530, "q17265": 2531, "q17266": 2532, "q17267": 2533, "q17268": 2534, "q17269": 2535, "q1727": 2536, "q17270": 2537, "q17271": 2538, "q17272": 2539, "q17273": 2540, "q17274": 2541, "q17275": 2542, "q17276": 2543, "q17277": 2544, "q17278": 2545, "q17279": 2546, "q1728": 2547, "q17280": 2548, "q17281": 2549, "q17282": 2550, "q17283": 2551, "q17284": 2552, "q17285": 2553, "q17286": 2554, "q17287": 2555, "q17288": 2556, "q17289": 2557, "q1729": 2558, "q17290": 2559, "q17291": 2560, "q17292": 2561, "q17293": 2562, "q17294": 2563, "q17295": 2564, "q17296": 2565, "q17297": 2566, "q17298": 2567, "q17299": 2568, "q173": 2569, "q1730": 2570, "q17300": 2571, "q17301": 2572, "q17302": 2573, "q17303": 2574, "q17304": 2575, "q17305": 2576, "q17306": 2577, "q17307": 2578, "q17308": 2579, "q17309": 2580, "q1731": 2581, "q17310": 2582, "q17311": 2583, "q17312": 2584, "q17313": 2585, "q17314": 2586, "q17315": 2587, "q17316": 2588, "q17317": 2589, "q17318": 2590, "q17319": 2591, "q1732": 2592, "q17320": 2593, "q17321": 2594, "q17322": 2595, "q17323": 2596, "q17324": 2597, "q17325": 2598, "q17326": 2599, "q17327": 2600, "q17328": 2601, "q17329": 2602, "q1733": 2603, "q17330": 2604, "q17331": 2605, "q17332": 2606, "q17333": 2607, "q17334": 2608, "q17335": 2609, "q17336": 2610, "q17337": 2611, "q17338": 2612, "q17339": 2613, "q1734": 2614, "q17340": 2615, "q17341": 2616, "q17342": 2617, "q17343": 2618, "q17344": 2619, "q17345": 2620, "q17346": 2621, "q17347": 2622, "q17348": 2623, "q17349": 2624, "q1735": 2625, "q17350": 2626, "q17351": 2627, "q17352": 2628, "q17353": 2629, "q17354": 2630, "q17355": 2631, "q17356": 2632, "q17357": 2633, "q17358": 2634, "q17359": 2635, "q1736": 2636, "q17360": 2637, "q17361": 2638, "q17362": 2639, "q17363": 2640, "q17364": 2641, "q17365": 2642, "q17366": 2643, "q17367": 2644, "q17368": 2645, "q17369": 2646, "q1737": 2647, "q17370": 2648, "q17371": 2649, "q17372": 2650, "q17373": 2651, "q17374": 2652, "q17375": 2653, "q17376": 2654, "q17377": 2655, "q17378": 2656, "q17379": 2657, "q1738": 2658, "q17380": 2659, "q17381": 2660, "q17382": 2661, "q17383": 2662, "q17384": 2663, "q17385": 2664, "q17386": 2665, "q17387": 2666, "q17388": 2667, "q17389": 2668, "q1739": 2669, "q17390": 2670, "q17391": 2671, "q17392": 2672, "q17393": 2673, "q17394": 2674, "q17395": 2675, "q17396": 2676, "q17397": 2677, "q17398": 2678, "q17399": 2679, "q174": 2680, "q1740": 2681, "q17400": 2682, "q1741": 2683, "q17413": 2684, "q17414": 2685, "q17415": 2686, "q17416": 2687, "q17417": 2688, "q17418": 2689, "q17419": 2690, "q1742": 2691, "q17420": 2692, "q17421": 2693, "q17422": 2694, "q17423": 2695, "q17424": 2696, "q17425": 2697, "q17426": 2698, "q17427": 2699, "q17428": 2700, "q17429": 2701, "q1743": 2702, "q17430": 2703, "q17431": 2704, "q17432": 2705, "q17433": 2706, "q17434": 2707, "q17435": 2708, "q17436": 2709, "q17437": 2710, "q17438": 2711, "q17439": 2712, "q1744": 2713, "q17440": 2714, "q17441": 2715, "q17442": 2716, "q17443": 2717, "q17444": 2718, "q17445": 2719, "q17446": 2720, "q17447": 2721, "q17448": 2722, "q17449": 2723, "q1745": 2724, "q17450": 2725, "q17451": 2726, "q17452": 2727, "q17453": 2728, "q17454": 2729, "q17455": 2730, "q17456": 2731, "q17457": 2732, "q17458": 2733, "q17459": 2734, "q1746": 2735, "q17460": 2736, "q17461": 2737, "q17462": 2738, "q17463": 2739, "q17464": 2740, "q17465": 2741, "q17466": 2742, "q17467": 2743, "q17468": 2744, "q17469": 2745, "q1747": 2746, "q17470": 2747, "q17471": 2748, "q17472": 2749, "q17473": 2750, "q17474": 2751, "q17475": 2752, "q17476": 2753, "q17477": 2754, "q17478": 2755, "q17479": 2756, "q1748": 2757, "q17480": 2758, "q17481": 2759, "q17482": 2760, "q17483": 2761, "q17484": 2762, "q17485": 2763, "q17486": 2764, "q17487": 2765, "q17488": 2766, "q17489": 2767, "q1749": 2768, "q17490": 2769, "q17491": 2770, "q17492": 2771, "q17493": 2772, "q17494": 2773, "q17495": 2774, "q17496": 2775, "q17497": 2776, "q17498": 2777, "q17499": 2778, "q175": 2779, "q1750": 2780, "q17500": 2781, "q17501": 2782, "q17502": 2783, "q17503": 2784, "q17504": 2785, "q17505": 2786, "q17506": 2787, "q17507": 2788, "q17508": 2789, "q17509": 2790, "q1751": 2791, "q17510": 2792, "q17511": 2793, "q17512": 2794, "q17513": 2795, "q17514": 2796, "q17515": 2797, "q17516": 2798, "q17517": 2799, "q17518": 2800, "q17519": 2801, "q1752": 2802, "q17520": 2803, "q17521": 2804, "q17522": 2805, "q17523": 2806, "q17524": 2807, "q17525": 2808, "q17526": 2809, "q17527": 2810, "q17528": 2811, "q17529": 2812, "q1753": 2813, "q17530": 2814, "q17531": 2815, "q17532": 2816, "q17533": 2817, "q17534": 2818, "q17535": 2819, "q17536": 2820, "q17537": 2821, "q17538": 2822, "q17539": 2823, "q1754": 2824, "q17540": 2825, "q17541": 2826, "q17542": 2827, "q17543": 2828, "q17544": 2829, "q17545": 2830, "q17546": 2831, "q17547": 2832, "q17548": 2833, "q17549": 2834, "q1755": 2835, "q17550": 2836, "q17551": 2837, "q17552": 2838, "q17553": 2839, "q17554": 2840, "q17555": 2841, "q17556": 2842, "q17557": 2843, "q17558": 2844, "q17559": 2845, "q1756": 2846, "q17560": 2847, "q17561": 2848, "q17562": 2849, "q17563": 2850, "q17564": 2851, "q17565": 2852, "q17566": 2853, "q17567": 2854, "q17568": 2855, "q17569": 2856, "q1757": 2857, "q17570": 2858, "q17571": 2859, "q17572": 2860, "q17573": 2861, "q17574": 2862, "q17575": 2863, "q17576": 2864, "q17577": 2865, "q17578": 2866, "q17579": 2867, "q1758": 2868, "q17580": 2869, "q17581": 2870, "q17582": 2871, "q17583": 2872, "q17584": 2873, "q17585": 2874, "q17586": 2875, "q17587": 2876, "q17588": 2877, "q17589": 2878, "q1759": 2879, "q17590": 2880, "q17591": 2881, "q17592": 2882, "q17593": 2883, "q17594": 2884, "q17595": 2885, "q17596": 2886, "q17597": 2887, "q17598": 2888, "q17599": 2889, "q176": 2890, "q1760": 2891, "q17600": 2892, "q17601": 2893, "q17602": 2894, "q17603": 2895, "q17604": 2896, "q17605": 2897, "q17606": 2898, "q17607": 2899, "q17608": 2900, "q17609": 2901, "q1761": 2902, "q17610": 2903, "q17611": 2904, "q17612": 2905, "q17613": 2906, "q17614": 2907, "q17615": 2908, "q17616": 2909, "q17617": 2910, "q17618": 2911, "q17619": 2912, "q1762": 2913, "q17620": 2914, "q17621": 2915, "q17622": 2916, "q17623": 2917, "q17624": 2918, "q17625": 2919, "q17626": 2920, "q17627": 2921, "q17628": 2922, "q17629": 2923, "q1763": 2924, "q17630": 2925, "q17631": 2926, "q17632": 2927, "q17633": 2928, "q17634": 2929, "q17635": 2930, "q17636": 2931, "q17637": 2932, "q17638": 2933, "q17639": 2934, "q1764": 2935, "q17640": 2936, "q17641": 2937, "q17642": 2938, "q17643": 2939, "q17644": 2940, "q17645": 2941, "q17646": 2942, "q17647": 2943, "q17648": 2944, "q17649": 2945, "q1765": 2946, "q17650": 2947, "q17651": 2948, "q17652": 2949, "q17653": 2950, "q17654": 2951, "q17655": 2952, "q17656": 2953, "q17657": 2954, "q17658": 2955, "q17659": 2956, "q1766": 2957, "q17660": 2958, "q17661": 2959, "q17662": 2960, "q17663": 2961, "q17664": 2962, "q17665": 2963, "q17666": 2964, "q17667": 2965, "q17668": 2966, "q17669": 2967, "q1767": 2968, "q17670": 2969, "q17671": 2970, "q17672": 2971, "q17673": 2972, "q17674": 2973, "q17675": 2974, "q17676": 2975, "q17677": 2976, "q17678": 2977, "q17679": 2978, "q1768": 2979, "q17680": 2980, "q17681": 2981, "q17682": 2982, "q17683": 2983, "q17684": 2984, "q17685": 2985, "q17686": 2986, "q17687": 2987, "q17688": 2988, "q17689": 2989, "q1769": 2990, "q17690": 2991, "q17691": 2992, "q17692": 2993, "q17693": 2994, "q17694": 2995, "q17695": 2996, "q17696": 2997, "q17697": 2998, "q17698": 2999, "q17699": 3000, "q177": 3001, "q1770": 3002, "q17700": 3003, "q17701": 3004, "q17702": 3005, "q17703": 3006, "q17704": 3007, "q17705": 3008, "q17706": 3009, "q17707": 3010, "q17708": 3011, "q17709": 3012, "q1771": 3013, "q17710": 3014, "q17711": 3015, "q17712": 3016, "q17713": 3017, "q17714": 3018, "q17715": 3019, "q17716": 3020, "q17717": 3021, "q17718": 3022, "q17719": 3023, "q1772": 3024, "q17720": 3025, "q17721": 3026, "q17722": 3027, "q17723": 3028, "q17724": 3029, "q17725": 3030, "q17726": 3031, "q17727": 3032, "q17728": 3033, "q17729": 3034, "q1773": 3035, "q17730": 3036, "q17731": 3037, "q17732": 3038, "q17733": 3039, "q17734": 3040, "q17735": 3041, "q17736": 3042, "q17737": 3043, "q17738": 3044, "q17739": 3045, "q1774": 3046, "q17740": 3047, "q17741": 3048, "q17742": 3049, "q17743": 3050, "q17744": 3051, "q17745": 3052, "q17746": 3053, "q17747": 3054, "q17748": 3055, "q17749": 3056, "q1775": 3057, "q17750": 3058, "q17751": 3059, "q17752": 3060, "q17753": 3061, "q17754": 3062, "q17755": 3063, "q17756": 3064, "q17757": 3065, "q17758": 3066, "q17759": 3067, "q1776": 3068, "q17760": 3069, "q17761": 3070, "q17762": 3071, "q17763": 3072, "q17764": 3073, "q17765": 3074, "q17766": 3075, "q17767": 3076, "q17768": 3077, "q17769": 3078, "q1777": 3079, "q17770": 3080, "q17771": 3081, "q17772": 3082, "q17773": 3083, "q17774": 3084, "q17775": 3085, "q17776": 3086, "q17777": 3087, "q17778": 3088, "q17779": 3089, "q1778": 3090, "q17780": 3091, "q17781": 3092, "q17782": 3093, "q17783": 3094, "q17784": 3095, "q17785": 3096, "q17786": 3097, "q17787": 3098, "q17788": 3099, "q17789": 3100, "q1779": 3101, "q17790": 3102, "q17791": 3103, "q17792": 3104, "q17793": 3105, "q17794": 3106, "q17795": 3107, "q17796": 3108, "q17797": 3109, "q17798": 3110, "q17799": 3111, "q178": 3112, "q1780": 3113, "q17800": 3114, "q17801": 3115, "q17802": 3116, "q17803": 3117, "q17804": 3118, "q17805": 3119, "q17806": 3120, "q17807": 3121, "q17808": 3122, "q17809": 3123, "q1781": 3124, "q17810": 3125, "q17811": 3126, "q17812": 3127, "q17813": 3128, "q17814": 3129, "q17815": 3130, "q17816": 3131, "q17817": 3132, "q17818": 3133, "q17819": 3134, "q1782": 3135, "q17820": 3136, "q17821": 3137, "q17822": 3138, "q17823": 3139, "q17824": 3140, "q17825": 3141, "q17826": 3142, "q17827": 3143, "q17828": 3144, "q17829": 3145, "q1783": 3146, "q17830": 3147, "q17831": 3148, "q17832": 3149, "q17833": 3150, "q17834": 3151, "q17835": 3152, "q17836": 3153, "q17837": 3154, "q17838": 3155, "q17839": 3156, "q1784": 3157, "q17840": 3158, "q17841": 3159, "q17842": 3160, "q17843": 3161, "q17844": 3162, "q17845": 3163, "q17846": 3164, "q17847": 3165, "q17848": 3166, "q17849": 3167, "q1785": 3168, "q17850": 3169, "q17851": 3170, "q17852": 3171, "q17853": 3172, "q17854": 3173, "q17855": 3174, "q17856": 3175, "q17857": 3176, "q17858": 3177, "q17859": 3178, "q1786": 3179, "q17860": 3180, "q17861": 3181, "q17862": 3182, "q17863": 3183, "q17864": 3184, "q17865": 3185, "q17866": 3186, "q17867": 3187, "q17868": 3188, "q17869": 3189, "q1787": 3190, "q17870": 3191, "q17871": 3192, "q17872": 3193, "q17873": 3194, "q17874": 3195, "q17875": 3196, "q17876": 3197, "q17877": 3198, "q17878": 3199, "q17879": 3200, "q1788": 3201, "q17880": 3202, "q17881": 3203, "q17882": 3204, "q17883": 3205, "q17884": 3206, "q17885": 3207, "q17886": 3208, "q17887": 3209, "q17888": 3210, "q17889": 3211, "q1789": 3212, "q17890": 3213, "q17891": 3214, "q17892": 3215, "q17893": 3216, "q17894": 3217, "q17895": 3218, "q17896": 3219, "q17897": 3220, "q17898": 3221, "q17899": 3222, "q179": 3223, "q1790": 3224, "q17900": 3225, "q17901": 3226, "q17902": 3227, "q17903": 3228, "q17904": 3229, "q17905": 3230, "q17906": 3231, "q17907": 3232, "q17908": 3233, "q17909": 3234, "q1791": 3235, "q17910": 3236, "q17911": 3237, "q17912": 3238, "q17913": 3239, "q17914": 3240, "q17915": 3241, "q17916": 3242, "q17917": 3243, "q17918": 3244, "q17919": 3245, "q1792": 3246, "q17920": 3247, "q17921": 3248, "q17922": 3249, "q17923": 3250, "q17924": 3251, "q17925": 3252, "q17926": 3253, "q17927": 3254, "q17928": 3255, "q17929": 3256, "q1793": 3257, "q17930": 3258, "q17931": 3259, "q17932": 3260, "q17933": 3261, "q17934": 3262, "q17935": 3263, "q17936": 3264, "q17937": 3265, "q17938": 3266, "q17939": 3267, "q1794": 3268, "q17940": 3269, "q17941": 3270, "q17942": 3271, "q17943": 3272, "q17944": 3273, "q17945": 3274, "q17946": 3275, "q17947": 3276, "q17948": 3277, "q17949": 3278, "q1795": 3279, "q17950": 3280, "q17951": 3281, "q17952": 3282, "q17953": 3283, "q17954": 3284, "q17955": 3285, "q17956": 3286, "q17957": 3287, "q17958": 3288, "q17959": 3289, "q1796": 3290, "q17960": 3291, "q17961": 3292, "q17962": 3293, "q17963": 3294, "q17964": 3295, "q17965": 3296, "q17966": 3297, "q17967": 3298, "q17968": 3299, "q17969": 3300, "q1797": 3301, "q17970": 3302, "q17971": 3303, "q17972": 3304, "q17973": 3305, "q17974": 3306, "q17975": 3307, "q17976": 3308, "q17977": 3309, "q17978": 3310, "q17979": 3311, "q1798": 3312, "q17980": 3313, "q17981": 3314, "q17982": 3315, "q17983": 3316, "q17984": 3317, "q17985": 3318, "q17986": 3319, "q17987": 3320, "q17988": 3321, "q17989": 3322, "q1799": 3323, "q17990": 3324, "q17991": 3325, "q17992": 3326, "q17993": 3327, "q17994": 3328, "q17995": 3329, "q17996": 3330, "q17997": 3331, "q17998": 3332, "q17999": 3333, "q18": 3334, "q180": 3335, "q1800": 3336, "q18000": 3337, "q18001": 3338, "q18002": 3339, "q18003": 3340, "q18004": 3341, "q18005": 3342, "q18006": 3343, "q18007": 3344, "q18008": 3345, "q18009": 3346, "q1801": 3347, "q18010": 3348, "q18011": 3349, "q18012": 3350, "q18013": 3351, "q18014": 3352, "q18015": 3353, "q18016": 3354, "q18017": 3355, "q18018": 3356, "q18019": 3357, "q1802": 3358, "q18020": 3359, "q18021": 3360, "q18022": 3361, "q18023": 3362, "q18024": 3363, "q18025": 3364, "q18026": 3365, "q18027": 3366, "q18028": 3367, "q18029": 3368, "q1803": 3369, "q18030": 3370, "q18031": 3371, "q18032": 3372, "q18033": 3373, "q18034": 3374, "q18035": 3375, "q18036": 3376, "q18037": 3377, "q18038": 3378, "q18039": 3379, "q1804": 3380, "q18040": 3381, "q18041": 3382, "q18042": 3383, "q18043": 3384, "q18044": 3385, "q18045": 3386, "q18046": 3387, "q18047": 3388, "q18048": 3389, "q18049": 3390, "q1805": 3391, "q18050": 3392, "q18051": 3393, "q18052": 3394, "q18053": 3395, "q18054": 3396, "q18055": 3397, "q18056": 3398, "q18057": 3399, "q18058": 3400, "q18059": 3401, "q1806": 3402, "q18060": 3403, "q18061": 3404, "q18062": 3405, "q18063": 3406, "q18064": 3407, "q18065": 3408, "q18066": 3409, "q18067": 3410, "q18068": 3411, "q18069": 3412, "q1807": 3413, "q18070": 3414, "q18071": 3415, "q18072": 3416, "q18073": 3417, "q18074": 3418, "q18075": 3419, "q18076": 3420, "q18077": 3421, "q18078": 3422, "q18079": 3423, "q1808": 3424, "q18080": 3425, "q18081": 3426, "q18082": 3427, "q18083": 3428, "q18084": 3429, "q18085": 3430, "q18086": 3431, "q18087": 3432, "q18088": 3433, "q18089": 3434, "q1809": 3435, "q18090": 3436, "q18091": 3437, "q18092": 3438, "q18093": 3439, "q18094": 3440, "q18095": 3441, "q18096": 3442, "q18097": 3443, "q18098": 3444, "q18099": 3445, "q181": 3446, "q1810": 3447, "q18100": 3448, "q18101": 3449, "q18102": 3450, "q18103": 3451, "q18104": 3452, "q18105": 3453, "q18106": 3454, "q18107": 3455, "q18108": 3456, "q18109": 3457, "q1811": 3458, "q18110": 3459, "q18111": 3460, "q18112": 3461, "q18113": 3462, "q18114": 3463, "q18115": 3464, "q18116": 3465, "q18117": 3466, "q18118": 3467, "q18119": 3468, "q1812": 3469, "q18120": 3470, "q18121": 3471, "q18122": 3472, "q18123": 3473, "q18124": 3474, "q18125": 3475, "q18126": 3476, "q18127": 3477, "q18128": 3478, "q18129": 3479, "q1813": 3480, "q18130": 3481, "q18131": 3482, "q18132": 3483, "q18133": 3484, "q18134": 3485, "q18135": 3486, "q18136": 3487, "q18137": 3488, "q18138": 3489, "q18139": 3490, "q1814": 3491, "q18140": 3492, "q18141": 3493, "q18142": 3494, "q18143": 3495, "q1815": 3496, "q1816": 3497, "q1817": 3498, "q1818": 3499, "q1819": 3500, "q182": 3501, "q1820": 3502, "q1821": 3503, "q1822": 3504, "q1823": 3505, "q1824": 3506, "q1825": 3507, "q1826": 3508, "q1827": 3509, "q1828": 3510, "q1829": 3511, "q183": 3512, "q1830": 3513, "q1831": 3514, "q1832": 3515, "q1833": 3516, "q1834": 3517, "q1835": 3518, "q1836": 3519, "q1837": 3520, "q1838": 3521, "q1839": 3522, "q184": 3523, "q1840": 3524, "q1841": 3525, "q1842": 3526, "q1843": 3527, "q1844": 3528, "q1845": 3529, "q1846": 3530, "q1847": 3531, "q1848": 3532, "q1849": 3533, "q185": 3534, "q1850": 3535, "q1851": 3536, "q1852": 3537, "q1853": 3538, "q1854": 3539, "q1855": 3540, "q1856": 3541, "q1857": 3542, "q1858": 3543, "q1859": 3544, "q186": 3545, "q1860": 3546, "q1861": 3547, "q1862": 3548, "q1863": 3549, "q1864": 3550, "q1865": 3551, "q1866": 3552, "q1867": 3553, "q1868": 3554, "q1869": 3555, "q187": 3556, "q1870": 3557, "q1871": 3558, "q1872": 3559, "q1873": 3560, "q1874": 3561, "q1875": 3562, "q1876": 3563, "q1877": 3564, "q1878": 3565, "q1879": 3566, "q188": 3567, "q1880": 3568, "q1881": 3569, "q1882": 3570, "q1883": 3571, "q1884": 3572, "q1885": 3573, "q1886": 3574, "q1887": 3575, "q1888": 3576, "q1889": 3577, "q189": 3578, "q1890": 3579, "q1891": 3580, "q1892": 3581, "q1893": 3582, "q1894": 3583, "q1895": 3584, "q1896": 3585, "q1897": 3586, "q1898": 3587, "q1899": 3588, "q19": 3589, "q190": 3590, "q1900": 3591, "q1901": 3592, "q1902": 3593, "q1903": 3594, "q1904": 3595, "q1905": 3596, "q1906": 3597, "q1907": 3598, "q1908": 3599, "q1909": 3600, "q191": 3601, "q1910": 3602, "q1911": 3603, "q1912": 3604, "q1913": 3605, "q1914": 3606, "q1915": 3607, "q1916": 3608, "q1917": 3609, "q1918": 3610, "q1919": 3611, "q192": 3612, "q1920": 3613, "q1921": 3614, "q1922": 3615, "q1923": 3616, "q1924": 3617, "q1925": 3618, "q1926": 3619, "q1927": 3620, "q1928": 3621, "q1929": 3622, "q193": 3623, "q1930": 3624, "q1931": 3625, "q1932": 3626, "q1933": 3627, "q1934": 3628, "q1935": 3629, "q1936": 3630, "q1937": 3631, "q1938": 3632, "q1939": 3633, "q194": 3634, "q1940": 3635, "q1941": 3636, "q1942": 3637, "q1943": 3638, "q1944": 3639, "q1945": 3640, "q1946": 3641, "q1947": 3642, "q1948": 3643, "q1949": 3644, "q195": 3645, "q1950": 3646, "q1951": 3647, "q1952": 3648, "q1953": 3649, "q1954": 3650, "q1955": 3651, "q1956": 3652, "q1957": 3653, "q1958": 3654, "q196": 3655, "q1962": 3656, "q1963": 3657, "q1964": 3658, "q1965": 3659, "q1966": 3660, "q1967": 3661, "q1968": 3662, "q1969": 3663, "q197": 3664, "q1970": 3665, "q1971": 3666, "q1972": 3667, "q1973": 3668, "q1974": 3669, "q1975": 3670, "q1976": 3671, "q1977": 3672, "q1978": 3673, "q1979": 3674, "q198": 3675, "q1980": 3676, "q1981": 3677, "q1982": 3678, "q1983": 3679, "q1984": 3680, "q1985": 3681, "q1986": 3682, "q1987": 3683, "q1988": 3684, "q1989": 3685, "q199": 3686, "q1990": 3687, "q1991": 3688, "q1992": 3689, "q1993": 3690, "q1994": 3691, "q1995": 3692, "q1996": 3693, "q1997": 3694, "q1998": 3695, "q1999": 3696, "q2": 3697, "q20": 3698, "q200": 3699, "q2000": 3700, "q2001": 3701, "q2002": 3702, "q2003": 3703, "q2004": 3704, "q2005": 3705, "q2006": 3706, "q2007": 3707, "q2008": 3708, "q2009": 3709, "q201": 3710, "q2010": 3711, "q2011": 3712, "q2012": 3713, "q2013": 3714, "q2014": 3715, "q2015": 3716, "q2016": 3717, "q2017": 3718, "q2018": 3719, "q2019": 3720, "q202": 3721, "q2020": 3722, "q2021": 3723, "q2025": 3724, "q2026": 3725, "q2027": 3726, "q2028": 3727, "q2029": 3728, "q203": 3729, "q2030": 3730, "q2031": 3731, "q2032": 3732, "q2033": 3733, "q2034": 3734, "q2035": 3735, "q2036": 3736, "q2037": 3737, "q2038": 3738, "q2039": 3739, "q204": 3740, "q2040": 3741, "q2041": 3742, "q2042": 3743, "q2043": 3744, "q2044": 3745, "q2045": 3746, "q2046": 3747, "q2047": 3748, "q2048": 3749, "q2049": 3750, "q205": 3751, "q2050": 3752, "q2051": 3753, "q2052": 3754, "q2053": 3755, "q2054": 3756, "q2055": 3757, "q2056": 3758, "q2057": 3759, "q2058": 3760, "q2059": 3761, "q206": 3762, "q2060": 3763, "q2061": 3764, "q2062": 3765, "q2063": 3766, "q2064": 3767, "q2065": 3768, "q2066": 3769, "q2067": 3770, "q2068": 3771, "q2069": 3772, "q207": 3773, "q2070": 3774, "q2071": 3775, "q2072": 3776, "q2073": 3777, "q2074": 3778, "q2075": 3779, "q2079": 3780, "q208": 3781, "q2080": 3782, "q2081": 3783, "q2082": 3784, "q2083": 3785, "q2084": 3786, "q2085": 3787, "q2086": 3788, "q2087": 3789, "q2088": 3790, "q2089": 3791, "q209": 3792, "q2090": 3793, "q2091": 3794, "q2092": 3795, "q2093": 3796, "q2094": 3797, "q2095": 3798, "q2096": 3799, "q21": 3800, "q210": 3801, "q2100": 3802, "q2101": 3803, "q2102": 3804, "q2103": 3805, "q2104": 3806, "q2105": 3807, "q2106": 3808, "q2107": 3809, "q2108": 3810, "q2109": 3811, "q211": 3812, "q2110": 3813, "q2111": 3814, "q2112": 3815, "q2113": 3816, "q2114": 3817, "q2115": 3818, "q2116": 3819, "q2117": 3820, "q2118": 3821, "q2119": 3822, "q212": 3823, "q2120": 3824, "q2124": 3825, "q2125": 3826, "q2126": 3827, "q2127": 3828, "q2128": 3829, "q2129": 3830, "q213": 3831, "q2130": 3832, "q2131": 3833, "q2132": 3834, "q2133": 3835, "q2134": 3836, "q2135": 3837, "q2139": 3838, "q214": 3839, "q2140": 3840, "q2141": 3841, "q2142": 3842, "q2143": 3843, "q2144": 3844, "q2145": 3845, "q2146": 3846, "q2147": 3847, "q2148": 3848, "q2149": 3849, "q215": 3850, "q2150": 3851, "q2151": 3852, "q2152": 3853, "q2153": 3854, "q2154": 3855, "q2155": 3856, "q2156": 3857, "q2157": 3858, "q2158": 3859, "q2159": 3860, "q216": 3861, "q2160": 3862, "q2161": 3863, "q2162": 3864, "q2166": 3865, "q2167": 3866, "q2168": 3867, "q2169": 3868, "q217": 3869, "q2170": 3870, "q2171": 3871, "q2172": 3872, "q2173": 3873, "q2174": 3874, "q2175": 3875, "q2176": 3876, "q2177": 3877, "q2178": 3878, "q2179": 3879, "q218": 3880, "q2180": 3881, "q2181": 3882, "q2182": 3883, "q2183": 3884, "q2184": 3885, "q2185": 3886, "q2186": 3887, "q2187": 3888, "q2188": 3889, "q2189": 3890, "q219": 3891, "q2190": 3892, "q2191": 3893, "q2192": 3894, "q2193": 3895, "q2194": 3896, "q2195": 3897, "q2196": 3898, "q2197": 3899, "q2198": 3900, "q2199": 3901, "q22": 3902, "q220": 3903, "q2200": 3904, "q2201": 3905, "q2202": 3906, "q2203": 3907, "q2204": 3908, "q2205": 3909, "q2206": 3910, "q2207": 3911, "q2208": 3912, "q2209": 3913, "q221": 3914, "q2210": 3915, "q2211": 3916, "q2212": 3917, "q2213": 3918, "q2214": 3919, "q2215": 3920, "q2216": 3921, "q2217": 3922, "q2218": 3923, "q2219": 3924, "q222": 3925, "q2220": 3926, "q2221": 3927, "q2222": 3928, "q2223": 3929, "q2224": 3930, "q2225": 3931, "q2226": 3932, "q2227": 3933, "q2228": 3934, "q2229": 3935, "q223": 3936, "q2230": 3937, "q2231": 3938, "q2232": 3939, "q2233": 3940, "q2234": 3941, "q2235": 3942, "q2236": 3943, "q2237": 3944, "q2238": 3945, "q2239": 3946, "q224": 3947, "q2240": 3948, "q2241": 3949, "q2242": 3950, "q2243": 3951, "q2244": 3952, "q2245": 3953, "q2246": 3954, "q2247": 3955, "q2248": 3956, "q2249": 3957, "q225": 3958, "q2250": 3959, "q2251": 3960, "q2252": 3961, "q2253": 3962, "q2254": 3963, "q2255": 3964, "q2256": 3965, "q2257": 3966, "q2258": 3967, "q2259": 3968, "q226": 3969, "q2260": 3970, "q2261": 3971, "q2262": 3972, "q2263": 3973, "q2264": 3974, "q2265": 3975, "q2266": 3976, "q2267": 3977, "q2268": 3978, "q2269": 3979, "q227": 3980, "q2270": 3981, "q2271": 3982, "q2272": 3983, "q2273": 3984, "q2274": 3985, "q2275": 3986, "q2276": 3987, "q2277": 3988, "q2278": 3989, "q2279": 3990, "q228": 3991, "q2280": 3992, "q2281": 3993, "q2282": 3994, "q2283": 3995, "q2284": 3996, "q2285": 3997, "q2286": 3998, "q2287": 3999, "q2288": 4000, "q2289": 4001, "q229": 4002, "q2290": 4003, "q2291": 4004, "q2292": 4005, "q2293": 4006, "q2294": 4007, "q2295": 4008, "q2296": 4009, "q2297": 4010, "q2298": 4011, "q2299": 4012, "q23": 4013, "q230": 4014, "q2300": 4015, "q2301": 4016, "q2302": 4017, "q2303": 4018, "q2304": 4019, "q2305": 4020, "q2306": 4021, "q2307": 4022, "q2308": 4023, "q2309": 4024, "q231": 4025, "q2310": 4026, "q2311": 4027, "q2312": 4028, "q2313": 4029, "q2314": 4030, "q2315": 4031, "q2316": 4032, "q2317": 4033, "q2318": 4034, "q2319": 4035, "q232": 4036, "q2320": 4037, "q2321": 4038, "q2322": 4039, "q2323": 4040, "q2324": 4041, "q2325": 4042, "q2326": 4043, "q2327": 4044, "q2328": 4045, "q2329": 4046, "q233": 4047, "q2330": 4048, "q2331": 4049, "q2332": 4050, "q2333": 4051, "q2334": 4052, "q2335": 4053, "q2336": 4054, "q2337": 4055, "q2338": 4056, "q2339": 4057, "q234": 4058, "q2340": 4059, "q2341": 4060, "q2342": 4061, "q2343": 4062, "q2344": 4063, "q2345": 4064, "q2346": 4065, "q2347": 4066, "q2348": 4067, "q2349": 4068, "q235": 4069, "q2350": 4070, "q2351": 4071, "q2352": 4072, "q2353": 4073, "q2354": 4074, "q2355": 4075, "q2356": 4076, "q2357": 4077, "q2358": 4078, "q2359": 4079, "q236": 4080, "q2360": 4081, "q2361": 4082, "q2362": 4083, "q2363": 4084, "q2364": 4085, "q2365": 4086, "q2366": 4087, "q2367": 4088, "q2368": 4089, "q2369": 4090, "q237": 4091, "q2370": 4092, "q2371": 4093, "q2372": 4094, "q2373": 4095, "q2374": 4096, "q2375": 4097, "q2376": 4098, "q2377": 4099, "q2378": 4100, "q2379": 4101, "q238": 4102, "q2380": 4103, "q2381": 4104, "q2382": 4105, "q2383": 4106, "q2384": 4107, "q2385": 4108, "q2386": 4109, "q2387": 4110, "q2388": 4111, "q2389": 4112, "q239": 4113, "q2390": 4114, "q2391": 4115, "q2392": 4116, "q2393": 4117, "q2394": 4118, "q2395": 4119, "q2396": 4120, "q2397": 4121, "q2398": 4122, "q2399": 4123, "q24": 4124, "q240": 4125, "q2400": 4126, "q2401": 4127, "q2402": 4128, "q2403": 4129, "q2404": 4130, "q2405": 4131, "q2406": 4132, "q2407": 4133, "q2408": 4134, "q2409": 4135, "q241": 4136, "q2410": 4137, "q2411": 4138, "q2412": 4139, "q2413": 4140, "q2414": 4141, "q2415": 4142, "q2416": 4143, "q2417": 4144, "q2418": 4145, "q2419": 4146, "q242": 4147, "q2420": 4148, "q2421": 4149, "q2422": 4150, "q2423": 4151, "q2424": 4152, "q2425": 4153, "q2426": 4154, "q2427": 4155, "q2428": 4156, "q2429": 4157, "q243": 4158, "q2430": 4159, "q2431": 4160, "q2432": 4161, "q2433": 4162, "q2434": 4163, "q2435": 4164, "q2436": 4165, "q2437": 4166, "q2438": 4167, "q2439": 4168, "q244": 4169, "q2440": 4170, "q2441": 4171, "q2442": 4172, "q2443": 4173, "q2444": 4174, "q2445": 4175, "q2446": 4176, "q2447": 4177, "q2448": 4178, "q2449": 4179, "q245": 4180, "q2450": 4181, "q2451": 4182, "q2452": 4183, "q2453": 4184, "q2454": 4185, "q2455": 4186, "q2456": 4187, "q2457": 4188, "q2458": 4189, "q2459": 4190, "q246": 4191, "q2463": 4192, "q2464": 4193, "q2465": 4194, "q2466": 4195, "q2467": 4196, "q2468": 4197, "q247": 4198, "q2472": 4199, "q2473": 4200, "q2474": 4201, "q2475": 4202, "q2476": 4203, "q2477": 4204, "q2478": 4205, "q2479": 4206, "q248": 4207, "q2480": 4208, "q2481": 4209, "q2482": 4210, "q2483": 4211, "q2484": 4212, "q2485": 4213, "q2486": 4214, "q2487": 4215, "q2488": 4216, "q2489": 4217, "q249": 4218, "q2490": 4219, "q2491": 4220, "q2492": 4221, "q2493": 4222, "q2494": 4223, "q2495": 4224, "q2496": 4225, "q2497": 4226, "q2498": 4227, "q2499": 4228, "q25": 4229, "q250": 4230, "q2500": 4231, "q2501": 4232, "q2502": 4233, "q2503": 4234, "q2504": 4235, "q2505": 4236, "q2506": 4237, "q2507": 4238, "q2508": 4239, "q2509": 4240, "q251": 4241, "q2510": 4242, "q2511": 4243, "q2512": 4244, "q2513": 4245, "q2514": 4246, "q2515": 4247, "q2516": 4248, "q2517": 4249, "q2518": 4250, "q2519": 4251, "q252": 4252, "q2520": 4253, "q2521": 4254, "q2522": 4255, "q2523": 4256, "q2524": 4257, "q2525": 4258, "q2526": 4259, "q2527": 4260, "q2528": 4261, "q2529": 4262, "q253": 4263, "q2530": 4264, "q2531": 4265, "q2535": 4266, "q2536": 4267, "q2537": 4268, "q254": 4269, "q2541": 4270, "q2542": 4271, "q2543": 4272, "q2547": 4273, "q2548": 4274, "q2549": 4275, "q255": 4276, "q2550": 4277, "q2551": 4278, "q2552": 4279, "q2553": 4280, "q2554": 4281, "q2555": 4282, "q2556": 4283, "q2557": 4284, "q2558": 4285, "q2559": 4286, "q256": 4287, "q2560": 4288, "q2561": 4289, "q2562": 4290, "q2563": 4291, "q2564": 4292, "q2565": 4293, "q2566": 4294, "q2567": 4295, "q2568": 4296, "q2569": 4297, "q257": 4298, "q2570": 4299, "q2571": 4300, "q2572": 4301, "q2573": 4302, "q2574": 4303, "q2575": 4304, "q2576": 4305, "q2577": 4306, "q2578": 4307, "q2579": 4308, "q258": 4309, "q2580": 4310, "q2581": 4311, "q2582": 4312, "q2583": 4313, "q2584": 4314, "q2585": 4315, "q2586": 4316, "q2587": 4317, "q2588": 4318, "q2589": 4319, "q259": 4320, "q2590": 4321, "q2591": 4322, "q2592": 4323, "q2593": 4324, "q2594": 4325, "q2595": 4326, "q2596": 4327, "q2597": 4328, "q2598": 4329, "q2599": 4330, "q26": 4331, "q260": 4332, "q2600": 4333, "q2601": 4334, "q2602": 4335, "q2603": 4336, "q2604": 4337, "q2605": 4338, "q2606": 4339, "q2607": 4340, "q2608": 4341, "q2609": 4342, "q261": 4343, "q2610": 4344, "q2611": 4345, "q2612": 4346, "q2613": 4347, "q2614": 4348, "q2615": 4349, "q2616": 4350, "q2617": 4351, "q2618": 4352, "q2619": 4353, "q262": 4354, "q2620": 4355, "q2621": 4356, "q2622": 4357, "q2623": 4358, "q2624": 4359, "q2625": 4360, "q2626": 4361, "q2627": 4362, "q2628": 4363, "q2629": 4364, "q263": 4365, "q2630": 4366, "q2631": 4367, "q2632": 4368, "q2633": 4369, "q2634": 4370, "q2635": 4371, "q2636": 4372, "q2637": 4373, "q2638": 4374, "q2639": 4375, "q264": 4376, "q2640": 4377, "q2641": 4378, "q2642": 4379, "q2643": 4380, "q2644": 4381, "q2645": 4382, "q2646": 4383, "q2647": 4384, "q2648": 4385, "q265": 4386, "q2652": 4387, "q2653": 4388, "q2654": 4389, "q2655": 4390, "q2656": 4391, "q2657": 4392, "q2658": 4393, "q2659": 4394, "q266": 4395, "q2660": 4396, "q2661": 4397, "q2662": 4398, "q2663": 4399, "q2664": 4400, "q2665": 4401, "q2666": 4402, "q2667": 4403, "q2668": 4404, "q2669": 4405, "q267": 4406, "q2670": 4407, "q2671": 4408, "q2672": 4409, "q2673": 4410, "q2674": 4411, "q2675": 4412, "q2676": 4413, "q2677": 4414, "q2678": 4415, "q2679": 4416, "q268": 4417, "q2680": 4418, "q2681": 4419, "q2682": 4420, "q2683": 4421, "q2684": 4422, "q2685": 4423, "q2686": 4424, "q2687": 4425, "q2688": 4426, "q2689": 4427, "q269": 4428, "q2690": 4429, "q2691": 4430, "q2692": 4431, "q2693": 4432, "q2694": 4433, "q2695": 4434, "q2696": 4435, "q2697": 4436, "q2698": 4437, "q2699": 4438, "q27": 4439, "q270": 4440, "q2700": 4441, "q2701": 4442, "q2702": 4443, "q2703": 4444, "q2704": 4445, "q2705": 4446, "q2706": 4447, "q2707": 4448, "q2708": 4449, "q2709": 4450, "q271": 4451, "q2710": 4452, "q2711": 4453, "q2715": 4454, "q2716": 4455, "q2717": 4456, "q2718": 4457, "q2719": 4458, "q272": 4459, "q2720": 4460, "q2721": 4461, "q2722": 4462, "q2723": 4463, "q2724": 4464, "q2725": 4465, "q2726": 4466, "q2727": 4467, "q2728": 4468, "q2729": 4469, "q273": 4470, "q2730": 4471, "q2731": 4472, "q2732": 4473, "q2733": 4474, "q2734": 4475, "q2735": 4476, "q2736": 4477, "q2737": 4478, "q2738": 4479, "q2739": 4480, "q274": 4481, "q2740": 4482, "q2741": 4483, "q2742": 4484, "q2743": 4485, "q2744": 4486, "q2745": 4487, "q2746": 4488, "q2747": 4489, "q275": 4490, "q2751": 4491, "q2752": 4492, "q2753": 4493, "q2754": 4494, "q2755": 4495, "q2756": 4496, "q2757": 4497, "q2758": 4498, "q2759": 4499, "q276": 4500, "q2760": 4501, "q2761": 4502, "q2762": 4503, "q2763": 4504, "q2764": 4505, "q2765": 4506, "q2766": 4507, "q2767": 4508, "q2768": 4509, "q2769": 4510, "q277": 4511, "q2770": 4512, "q2771": 4513, "q2772": 4514, "q2773": 4515, "q2774": 4516, "q2775": 4517, "q2776": 4518, "q2777": 4519, "q2778": 4520, "q2779": 4521, "q278": 4522, "q2780": 4523, "q2781": 4524, "q2782": 4525, "q2783": 4526, "q2784": 4527, "q2785": 4528, "q2786": 4529, "q2787": 4530, "q2788": 4531, "q2789": 4532, "q279": 4533, "q2790": 4534, "q2791": 4535, "q2792": 4536, "q2796": 4537, "q2797": 4538, "q2798": 4539, "q2799": 4540, "q28": 4541, "q280": 4542, "q2800": 4543, "q2801": 4544, "q2802": 4545, "q2803": 4546, "q2804": 4547, "q2805": 4548, "q2806": 4549, "q2807": 4550, "q2808": 4551, "q2809": 4552, "q281": 4553, "q2810": 4554, "q2811": 4555, "q2812": 4556, "q2813": 4557, "q2814": 4558, "q2815": 4559, "q2816": 4560, "q2817": 4561, "q2818": 4562, "q2819": 4563, "q282": 4564, "q2820": 4565, "q2821": 4566, "q2822": 4567, "q2823": 4568, "q2824": 4569, "q2825": 4570, "q2826": 4571, "q2827": 4572, "q2828": 4573, "q2829": 4574, "q283": 4575, "q2830": 4576, "q2831": 4577, "q2832": 4578, "q2833": 4579, "q2834": 4580, "q2838": 4581, "q2839": 4582, "q284": 4583, "q2840": 4584, "q2841": 4585, "q2842": 4586, "q2843": 4587, "q2844": 4588, "q2845": 4589, "q2846": 4590, "q2847": 4591, "q2848": 4592, "q2849": 4593, "q285": 4594, "q2850": 4595, "q2851": 4596, "q2852": 4597, "q2853": 4598, "q2854": 4599, "q2855": 4600, "q2856": 4601, "q2857": 4602, "q2858": 4603, "q2859": 4604, "q286": 4605, "q2860": 4606, "q2861": 4607, "q2862": 4608, "q2863": 4609, "q2864": 4610, "q2868": 4611, "q2869": 4612, "q287": 4613, "q2870": 4614, "q2871": 4615, "q2872": 4616, "q2873": 4617, "q2874": 4618, "q2875": 4619, "q2876": 4620, "q2877": 4621, "q2878": 4622, "q2879": 4623, "q288": 4624, "q2880": 4625, "q2881": 4626, "q2882": 4627, "q2883": 4628, "q2884": 4629, "q2885": 4630, "q2889": 4631, "q289": 4632, "q2890": 4633, "q2891": 4634, "q2892": 4635, "q2893": 4636, "q2894": 4637, "q2895": 4638, "q2896": 4639, "q2897": 4640, "q2898": 4641, "q2899": 4642, "q29": 4643, "q290": 4644, "q2900": 4645, "q2901": 4646, "q2902": 4647, "q2903": 4648, "q2904": 4649, "q2905": 4650, "q2906": 4651, "q2907": 4652, "q2908": 4653, "q2909": 4654, "q291": 4655, "q2910": 4656, "q2911": 4657, "q2912": 4658, "q2913": 4659, "q2914": 4660, "q2915": 4661, "q2916": 4662, "q2917": 4663, "q2918": 4664, "q2919": 4665, "q292": 4666, "q2920": 4667, "q2921": 4668, "q2922": 4669, "q2923": 4670, "q2924": 4671, "q2925": 4672, "q2926": 4673, "q2927": 4674, "q2928": 4675, "q2929": 4676, "q293": 4677, "q2930": 4678, "q2931": 4679, "q2932": 4680, "q2933": 4681, "q2934": 4682, "q2935": 4683, "q2936": 4684, "q2937": 4685, "q2938": 4686, "q2939": 4687, "q294": 4688, "q2940": 4689, "q2941": 4690, "q2942": 4691, "q2943": 4692, "q2944": 4693, "q2945": 4694, "q2946": 4695, "q2947": 4696, "q2948": 4697, "q2949": 4698, "q295": 4699, "q2950": 4700, "q2951": 4701, "q2952": 4702, "q2953": 4703, "q2954": 4704, "q2955": 4705, "q2956": 4706, "q2957": 4707, "q296": 4708, "q2961": 4709, "q2962": 4710, "q2963": 4711, "q2964": 4712, "q2965": 4713, "q2966": 4714, "q2967": 4715, "q2968": 4716, "q2969": 4717, "q297": 4718, "q2973": 4719, "q2974": 4720, "q2975": 4721, "q2976": 4722, "q2977": 4723, "q2978": 4724, "q2979": 4725, "q298": 4726, "q2980": 4727, "q2981": 4728, "q2982": 4729, "q2983": 4730, "q2984": 4731, "q2985": 4732, "q2986": 4733, "q2987": 4734, "q2988": 4735, "q2989": 4736, "q299": 4737, "q2990": 4738, "q2991": 4739, "q2992": 4740, "q2993": 4741, "q2994": 4742, "q2995": 4743, "q2996": 4744, "q2997": 4745, "q2998": 4746, "q2999": 4747, "q3": 4748, "q30": 4749, "q300": 4750, "q3000": 4751, "q3001": 4752, "q3002": 4753, "q3003": 4754, "q3004": 4755, "q3005": 4756, "q3006": 4757, "q3007": 4758, "q3008": 4759, "q3009": 4760, "q301": 4761, "q3010": 4762, "q3011": 4763, "q3012": 4764, "q3013": 4765, "q3014": 4766, "q3015": 4767, "q3016": 4768, "q3017": 4769, "q3018": 4770, "q3019": 4771, "q302": 4772, "q3020": 4773, "q3021": 4774, "q3022": 4775, "q3023": 4776, "q3024": 4777, "q3025": 4778, "q3026": 4779, "q3027": 4780, "q3028": 4781, "q3029": 4782, "q303": 4783, "q3030": 4784, "q3031": 4785, "q3032": 4786, "q3033": 4787, "q3034": 4788, "q3035": 4789, "q3036": 4790, "q3037": 4791, "q3038": 4792, "q3039": 4793, "q304": 4794, "q3040": 4795, "q3041": 4796, "q3042": 4797, "q3043": 4798, "q3044": 4799, "q3045": 4800, "q3046": 4801, "q3047": 4802, "q3048": 4803, "q3049": 4804, "q305": 4805, "q3050": 4806, "q3051": 4807, "q3052": 4808, "q3053": 4809, "q3054": 4810, "q3055": 4811, "q3056": 4812, "q3057": 4813, "q3058": 4814, "q3059": 4815, "q306": 4816, "q3060": 4817, "q3061": 4818, "q3062": 4819, "q3063": 4820, "q3064": 4821, "q3065": 4822, "q3066": 4823, "q3067": 4824, "q3068": 4825, "q3069": 4826, "q307": 4827, "q3070": 4828, "q3071": 4829, "q3072": 4830, "q3073": 4831, "q3074": 4832, "q3078": 4833, "q3079": 4834, "q308": 4835, "q3080": 4836, "q3081": 4837, "q3082": 4838, "q3083": 4839, "q309": 4840, "q3090": 4841, "q3091": 4842, "q3092": 4843, "q3093": 4844, "q3094": 4845, "q3095": 4846, "q3096": 4847, "q3097": 4848, "q3098": 4849, "q3099": 4850, "q31": 4851, "q310": 4852, "q3100": 4853, "q3101": 4854, "q3102": 4855, "q3103": 4856, "q3104": 4857, "q3105": 4858, "q3106": 4859, "q3107": 4860, "q3108": 4861, "q3109": 4862, "q311": 4863, "q3110": 4864, "q3111": 4865, "q3112": 4866, "q3113": 4867, "q3114": 4868, "q3115": 4869, "q3116": 4870, "q3117": 4871, "q3118": 4872, "q3119": 4873, "q312": 4874, "q3120": 4875, "q3121": 4876, "q3122": 4877, "q3123": 4878, "q3124": 4879, "q3125": 4880, "q3126": 4881, "q3127": 4882, "q3128": 4883, "q3129": 4884, "q313": 4885, "q3130": 4886, "q3131": 4887, "q3132": 4888, "q3133": 4889, "q3134": 4890, "q3135": 4891, "q3136": 4892, "q3137": 4893, "q3138": 4894, "q3139": 4895, "q314": 4896, "q3140": 4897, "q3141": 4898, "q3142": 4899, "q3143": 4900, "q3144": 4901, "q3145": 4902, "q3146": 4903, "q315": 4904, "q3150": 4905, "q3151": 4906, "q3152": 4907, "q3153": 4908, "q3154": 4909, "q3155": 4910, "q3156": 4911, "q3157": 4912, "q3158": 4913, "q3159": 4914, "q316": 4915, "q3160": 4916, "q3161": 4917, "q3162": 4918, "q3163": 4919, "q3164": 4920, "q3165": 4921, "q3166": 4922, "q3167": 4923, "q3168": 4924, "q3169": 4925, "q317": 4926, "q3170": 4927, "q3171": 4928, "q3172": 4929, "q3173": 4930, "q3174": 4931, "q3175": 4932, "q3176": 4933, "q3177": 4934, "q3178": 4935, "q3179": 4936, "q318": 4937, "q3180": 4938, "q3181": 4939, "q3182": 4940, "q3183": 4941, "q3184": 4942, "q3185": 4943, "q3186": 4944, "q3187": 4945, "q3188": 4946, "q3189": 4947, "q319": 4948, "q3190": 4949, "q3191": 4950, "q3192": 4951, "q3193": 4952, "q3194": 4953, "q3195": 4954, "q3196": 4955, "q3197": 4956, "q3198": 4957, "q3199": 4958, "q32": 4959, "q320": 4960, "q3200": 4961, "q3204": 4962, "q3205": 4963, "q3206": 4964, "q3207": 4965, "q3208": 4966, "q3209": 4967, "q321": 4968, "q3210": 4969, "q3211": 4970, "q3212": 4971, "q3213": 4972, "q3214": 4973, "q3215": 4974, "q3216": 4975, "q3217": 4976, "q3218": 4977, "q3219": 4978, "q322": 4979, "q3220": 4980, "q3221": 4981, "q3222": 4982, "q3223": 4983, "q3224": 4984, "q3225": 4985, "q3226": 4986, "q3227": 4987, "q3228": 4988, "q3229": 4989, "q323": 4990, "q3230": 4991, "q3231": 4992, "q3232": 4993, "q3233": 4994, "q3237": 4995, "q3238": 4996, "q3239": 4997, "q324": 4998, "q3240": 4999, "q3241": 5000, "q3242": 5001, "q3246": 5002, "q3247": 5003, "q3248": 5004, "q3249": 5005, "q325": 5006, "q3250": 5007, "q3251": 5008, "q3252": 5009, "q3253": 5010, "q3254": 5011, "q3255": 5012, "q3256": 5013, "q3257": 5014, "q3258": 5015, "q3259": 5016, "q326": 5017, "q3260": 5018, "q3261": 5019, "q3262": 5020, "q3263": 5021, "q3264": 5022, "q3265": 5023, "q3266": 5024, "q3267": 5025, "q3268": 5026, "q3269": 5027, "q327": 5028, "q3270": 5029, "q3271": 5030, "q3272": 5031, "q3273": 5032, "q3274": 5033, "q3275": 5034, "q3276": 5035, "q3277": 5036, "q3278": 5037, "q3279": 5038, "q328": 5039, "q3280": 5040, "q3281": 5041, "q3282": 5042, "q3283": 5043, "q3284": 5044, "q3285": 5045, "q3286": 5046, "q3287": 5047, "q3288": 5048, "q3289": 5049, "q329": 5050, "q3290": 5051, "q3291": 5052, "q3292": 5053, "q3293": 5054, "q3294": 5055, "q3295": 5056, "q3296": 5057, "q3297": 5058, "q3298": 5059, "q3299": 5060, "q33": 5061, "q330": 5062, "q3300": 5063, "q3301": 5064, "q3302": 5065, "q3303": 5066, "q3304": 5067, "q3305": 5068, "q3306": 5069, "q3307": 5070, "q3308": 5071, "q331": 5072, "q3312": 5073, "q3313": 5074, "q3314": 5075, "q3315": 5076, "q3316": 5077, "q3317": 5078, "q3318": 5079, "q3319": 5080, "q332": 5081, "q3320": 5082, "q3321": 5083, "q3322": 5084, "q3323": 5085, "q3324": 5086, "q3325": 5087, "q3326": 5088, "q3327": 5089, "q3328": 5090, "q3329": 5091, "q333": 5092, "q3330": 5093, "q3331": 5094, "q3332": 5095, "q3333": 5096, "q3334": 5097, "q3335": 5098, "q3336": 5099, "q3337": 5100, "q3338": 5101, "q3339": 5102, "q334": 5103, "q3340": 5104, "q3341": 5105, "q3342": 5106, "q3343": 5107, "q3344": 5108, "q3345": 5109, "q3346": 5110, "q3347": 5111, "q3348": 5112, "q3349": 5113, "q335": 5114, "q3350": 5115, "q3351": 5116, "q3352": 5117, "q3353": 5118, "q3354": 5119, "q3355": 5120, "q3356": 5121, "q3357": 5122, "q3358": 5123, "q3359": 5124, "q336": 5125, "q3360": 5126, "q3361": 5127, "q3362": 5128, "q3363": 5129, "q3364": 5130, "q3365": 5131, "q3366": 5132, "q3367": 5133, "q3368": 5134, "q3369": 5135, "q337": 5136, "q3370": 5137, "q3371": 5138, "q3372": 5139, "q3373": 5140, "q3374": 5141, "q3375": 5142, "q3376": 5143, "q3377": 5144, "q3378": 5145, "q3379": 5146, "q338": 5147, "q3380": 5148, "q3381": 5149, "q3382": 5150, "q3383": 5151, "q3384": 5152, "q3385": 5153, "q3386": 5154, "q3387": 5155, "q3388": 5156, "q3389": 5157, "q339": 5158, "q3393": 5159, "q3394": 5160, "q3395": 5161, "q3396": 5162, "q3397": 5163, "q3398": 5164, "q3399": 5165, "q34": 5166, "q340": 5167, "q3400": 5168, "q3401": 5169, "q3402": 5170, "q3403": 5171, "q3404": 5172, "q3405": 5173, "q3406": 5174, "q3407": 5175, "q3408": 5176, "q3409": 5177, "q341": 5178, "q3410": 5179, "q3411": 5180, "q3412": 5181, "q3413": 5182, "q3414": 5183, "q3415": 5184, "q3416": 5185, "q3417": 5186, "q3418": 5187, "q3419": 5188, "q342": 5189, "q3420": 5190, "q3421": 5191, "q3422": 5192, "q3423": 5193, "q3424": 5194, "q3425": 5195, "q3426": 5196, "q3427": 5197, "q3428": 5198, "q3429": 5199, "q343": 5200, "q3430": 5201, "q3431": 5202, "q3432": 5203, "q3433": 5204, "q3434": 5205, "q3435": 5206, "q3436": 5207, "q3437": 5208, "q3438": 5209, "q3439": 5210, "q344": 5211, "q3440": 5212, "q3441": 5213, "q3442": 5214, "q3443": 5215, "q3444": 5216, "q3445": 5217, "q3446": 5218, "q345": 5219, "q3450": 5220, "q3451": 5221, "q3452": 5222, "q3453": 5223, "q3454": 5224, "q3455": 5225, "q3459": 5226, "q346": 5227, "q3460": 5228, "q3461": 5229, "q3462": 5230, "q3463": 5231, "q3464": 5232, "q3465": 5233, "q3466": 5234, "q3467": 5235, "q3468": 5236, "q3469": 5237, "q347": 5238, "q3470": 5239, "q3471": 5240, "q3472": 5241, "q3473": 5242, "q3474": 5243, "q3475": 5244, "q3476": 5245, "q3477": 5246, "q3478": 5247, "q3479": 5248, "q348": 5249, "q3480": 5250, "q3481": 5251, "q3482": 5252, "q3483": 5253, "q3484": 5254, "q3485": 5255, "q3486": 5256, "q3487": 5257, "q3488": 5258, "q3489": 5259, "q349": 5260, "q3490": 5261, "q3491": 5262, "q3492": 5263, "q3493": 5264, "q3494": 5265, "q3495": 5266, "q3496": 5267, "q3497": 5268, "q3498": 5269, "q3499": 5270, "q35": 5271, "q350": 5272, "q3500": 5273, "q3501": 5274, "q3502": 5275, "q3503": 5276, "q3504": 5277, "q3505": 5278, "q3506": 5279, "q3507": 5280, "q3508": 5281, "q3509": 5282, "q351": 5283, "q3510": 5284, "q3511": 5285, "q3512": 5286, "q3513": 5287, "q3514": 5288, "q3515": 5289, "q3516": 5290, "q3517": 5291, "q3518": 5292, "q3519": 5293, "q352": 5294, "q3520": 5295, "q3521": 5296, "q3522": 5297, "q3523": 5298, "q3524": 5299, "q3525": 5300, "q3526": 5301, "q3527": 5302, "q3528": 5303, "q3529": 5304, "q353": 5305, "q3530": 5306, "q3531": 5307, "q3532": 5308, "q3533": 5309, "q3534": 5310, "q3535": 5311, "q3536": 5312, "q3537": 5313, "q3538": 5314, "q3539": 5315, "q354": 5316, "q3540": 5317, "q3541": 5318, "q3542": 5319, "q3543": 5320, "q3544": 5321, "q3545": 5322, "q3546": 5323, "q3547": 5324, "q3548": 5325, "q3549": 5326, "q355": 5327, "q3550": 5328, "q3551": 5329, "q3552": 5330, "q3553": 5331, "q3554": 5332, "q3555": 5333, "q3556": 5334, "q3557": 5335, "q3558": 5336, "q3559": 5337, "q356": 5338, "q3560": 5339, "q3561": 5340, "q3562": 5341, "q3563": 5342, "q3564": 5343, "q3565": 5344, "q3566": 5345, "q3567": 5346, "q3568": 5347, "q3569": 5348, "q357": 5349, "q3570": 5350, "q3571": 5351, "q3572": 5352, "q3573": 5353, "q3574": 5354, "q3575": 5355, "q3576": 5356, "q3577": 5357, "q3578": 5358, "q3579": 5359, "q358": 5360, "q3580": 5361, "q3581": 5362, "q3585": 5363, "q3586": 5364, "q3587": 5365, "q3588": 5366, "q3589": 5367, "q359": 5368, "q3590": 5369, "q3591": 5370, "q3592": 5371, "q3593": 5372, "q3594": 5373, "q3595": 5374, "q3596": 5375, "q3597": 5376, "q3598": 5377, "q3599": 5378, "q36": 5379, "q360": 5380, "q3603": 5381, "q3604": 5382, "q3605": 5383, "q3606": 5384, "q3607": 5385, "q3608": 5386, "q361": 5387, "q3614": 5388, "q3615": 5389, "q3616": 5390, "q3617": 5391, "q3618": 5392, "q3619": 5393, "q362": 5394, "q3620": 5395, "q3621": 5396, "q3622": 5397, "q3623": 5398, "q3624": 5399, "q3625": 5400, "q3626": 5401, "q3627": 5402, "q3629": 5403, "q363": 5404, "q3630": 5405, "q3631": 5406, "q3632": 5407, "q3633": 5408, "q3634": 5409, "q3635": 5410, "q3636": 5411, "q3637": 5412, "q3638": 5413, "q364": 5414, "q3640": 5415, "q3641": 5416, "q3642": 5417, "q3643": 5418, "q3644": 5419, "q3645": 5420, "q3646": 5421, "q3648": 5422, "q3649": 5423, "q365": 5424, "q3650": 5425, "q3651": 5426, "q3652": 5427, "q3653": 5428, "q3654": 5429, "q3655": 5430, "q3656": 5431, "q3657": 5432, "q3658": 5433, "q3659": 5434, "q366": 5435, "q3660": 5436, "q3661": 5437, "q3662": 5438, "q3663": 5439, "q3664": 5440, "q3665": 5441, "q3666": 5442, "q3667": 5443, "q3668": 5444, "q3669": 5445, "q367": 5446, "q3670": 5447, "q3671": 5448, "q3672": 5449, "q3673": 5450, "q3674": 5451, "q3675": 5452, "q3676": 5453, "q3677": 5454, "q3678": 5455, "q3679": 5456, "q368": 5457, "q3680": 5458, "q3681": 5459, "q3682": 5460, "q3683": 5461, "q3684": 5462, "q3685": 5463, "q3686": 5464, "q3687": 5465, "q3688": 5466, "q3689": 5467, "q369": 5468, "q3690": 5469, "q3691": 5470, "q3692": 5471, "q3693": 5472, "q3694": 5473, "q3695": 5474, "q3696": 5475, "q3697": 5476, "q3698": 5477, "q3699": 5478, "q37": 5479, "q370": 5480, "q3700": 5481, "q3701": 5482, "q3702": 5483, "q3703": 5484, "q3704": 5485, "q3705": 5486, "q3706": 5487, "q3707": 5488, "q3708": 5489, "q3709": 5490, "q371": 5491, "q3710": 5492, "q3711": 5493, "q3712": 5494, "q3713": 5495, "q3714": 5496, "q3715": 5497, "q3716": 5498, "q3717": 5499, "q3718": 5500, "q3719": 5501, "q372": 5502, "q3720": 5503, "q3721": 5504, "q3722": 5505, "q3724": 5506, "q3725": 5507, "q3727": 5508, "q3728": 5509, "q3729": 5510, "q373": 5511, "q3730": 5512, "q3731": 5513, "q3733": 5514, "q3734": 5515, "q3735": 5516, "q3736": 5517, "q3737": 5518, "q3738": 5519, "q3739": 5520, "q374": 5521, "q3740": 5522, "q3741": 5523, "q3742": 5524, "q3743": 5525, "q3744": 5526, "q3745": 5527, "q3746": 5528, "q3747": 5529, "q3748": 5530, "q3749": 5531, "q375": 5532, "q3750": 5533, "q3751": 5534, "q3752": 5535, "q3753": 5536, "q3754": 5537, "q3755": 5538, "q3756": 5539, "q3757": 5540, "q3758": 5541, "q3759": 5542, "q376": 5543, "q3760": 5544, "q3761": 5545, "q3762": 5546, "q3763": 5547, "q3764": 5548, "q3765": 5549, "q3766": 5550, "q3767": 5551, "q3768": 5552, "q3769": 5553, "q377": 5554, "q3770": 5555, "q3771": 5556, "q3772": 5557, "q3773": 5558, "q3774": 5559, "q3775": 5560, "q3776": 5561, "q3777": 5562, "q3778": 5563, "q3779": 5564, "q378": 5565, "q3780": 5566, "q3781": 5567, "q3782": 5568, "q3783": 5569, "q3784": 5570, "q3785": 5571, "q3786": 5572, "q3787": 5573, "q3788": 5574, "q3789": 5575, "q379": 5576, "q3790": 5577, "q3791": 5578, "q3792": 5579, "q3793": 5580, "q3794": 5581, "q3795": 5582, "q3796": 5583, "q3797": 5584, "q3798": 5585, "q3799": 5586, "q38": 5587, "q380": 5588, "q3800": 5589, "q3801": 5590, "q3802": 5591, "q3803": 5592, "q3804": 5593, "q3805": 5594, "q3806": 5595, "q3807": 5596, "q3808": 5597, "q381": 5598, "q3810": 5599, "q3811": 5600, "q3812": 5601, "q3813": 5602, "q3814": 5603, "q3815": 5604, "q3816": 5605, "q3817": 5606, "q3818": 5607, "q3819": 5608, "q382": 5609, "q3820": 5610, "q3821": 5611, "q3822": 5612, "q3823": 5613, "q3824": 5614, "q3825": 5615, "q3826": 5616, "q3827": 5617, "q3828": 5618, "q3829": 5619, "q383": 5620, "q3830": 5621, "q3831": 5622, "q3832": 5623, "q3833": 5624, "q3834": 5625, "q3835": 5626, "q3836": 5627, "q3837": 5628, "q3838": 5629, "q3839": 5630, "q384": 5631, "q3840": 5632, "q3841": 5633, "q3842": 5634, "q3843": 5635, "q3844": 5636, "q3845": 5637, "q3846": 5638, "q3847": 5639, "q3848": 5640, "q3849": 5641, "q385": 5642, "q3850": 5643, "q3851": 5644, "q3852": 5645, "q3853": 5646, "q3854": 5647, "q3855": 5648, "q3856": 5649, "q3857": 5650, "q3858": 5651, "q3859": 5652, "q386": 5653, "q3860": 5654, "q3861": 5655, "q3862": 5656, "q3863": 5657, "q3864": 5658, "q3865": 5659, "q3866": 5660, "q3867": 5661, "q3868": 5662, "q3869": 5663, "q387": 5664, "q3870": 5665, "q3871": 5666, "q3872": 5667, "q3874": 5668, "q3875": 5669, "q3876": 5670, "q3877": 5671, "q3878": 5672, "q3879": 5673, "q388": 5674, "q3880": 5675, "q3881": 5676, "q3882": 5677, "q3883": 5678, "q3884": 5679, "q3885": 5680, "q3886": 5681, "q3887": 5682, "q3888": 5683, "q3889": 5684, "q389": 5685, "q3890": 5686, "q3891": 5687, "q3892": 5688, "q3893": 5689, "q3894": 5690, "q3895": 5691, "q3896": 5692, "q3897": 5693, "q3898": 5694, "q3899": 5695, "q39": 5696, "q390": 5697, "q3900": 5698, "q3901": 5699, "q3902": 5700, "q3903": 5701, "q3904": 5702, "q3905": 5703, "q3906": 5704, "q3907": 5705, "q3908": 5706, "q3909": 5707, "q391": 5708, "q3910": 5709, "q3911": 5710, "q3912": 5711, "q3913": 5712, "q3914": 5713, "q3915": 5714, "q3916": 5715, "q3917": 5716, "q3918": 5717, "q3919": 5718, "q392": 5719, "q3920": 5720, "q3921": 5721, "q3922": 5722, "q3923": 5723, "q3924": 5724, "q3925": 5725, "q3926": 5726, "q3927": 5727, "q3928": 5728, "q3929": 5729, "q393": 5730, "q3930": 5731, "q3931": 5732, "q3932": 5733, "q3933": 5734, "q3934": 5735, "q3935": 5736, "q3936": 5737, "q3937": 5738, "q3938": 5739, "q3939": 5740, "q394": 5741, "q3940": 5742, "q3941": 5743, "q3942": 5744, "q3943": 5745, "q3944": 5746, "q3945": 5747, "q3946": 5748, "q3947": 5749, "q3948": 5750, "q3949": 5751, "q395": 5752, "q3950": 5753, "q3951": 5754, "q3952": 5755, "q3953": 5756, "q3954": 5757, "q3955": 5758, "q3956": 5759, "q3957": 5760, "q3958": 5761, "q3959": 5762, "q396": 5763, "q3960": 5764, "q3961": 5765, "q3962": 5766, "q3963": 5767, "q3964": 5768, "q3965": 5769, "q3966": 5770, "q3967": 5771, "q3968": 5772, "q3969": 5773, "q397": 5774, "q3970": 5775, "q3971": 5776, "q3972": 5777, "q3973": 5778, "q3974": 5779, "q3975": 5780, "q3976": 5781, "q3977": 5782, "q3978": 5783, "q3979": 5784, "q398": 5785, "q3980": 5786, "q3981": 5787, "q3982": 5788, "q3983": 5789, "q3984": 5790, "q3985": 5791, "q3986": 5792, "q3987": 5793, "q3988": 5794, "q3989": 5795, "q399": 5796, "q3990": 5797, "q3991": 5798, "q3992": 5799, "q3993": 5800, "q3994": 5801, "q3995": 5802, "q3996": 5803, "q3997": 5804, "q3998": 5805, "q3999": 5806, "q4": 5807, "q40": 5808, "q400": 5809, "q4000": 5810, "q4001": 5811, "q4002": 5812, "q4003": 5813, "q4004": 5814, "q4005": 5815, "q4006": 5816, "q4007": 5817, "q4008": 5818, "q4009": 5819, "q401": 5820, "q4010": 5821, "q4011": 5822, "q4012": 5823, "q4013": 5824, "q4014": 5825, "q4015": 5826, "q4016": 5827, "q4017": 5828, "q4018": 5829, "q4019": 5830, "q402": 5831, "q4020": 5832, "q4021": 5833, "q4022": 5834, "q4023": 5835, "q4024": 5836, "q4025": 5837, "q4026": 5838, "q4027": 5839, "q4028": 5840, "q4029": 5841, "q403": 5842, "q4030": 5843, "q4031": 5844, "q4032": 5845, "q4033": 5846, "q4034": 5847, "q4035": 5848, "q4036": 5849, "q4037": 5850, "q4038": 5851, "q4039": 5852, "q404": 5853, "q4040": 5854, "q4041": 5855, "q4042": 5856, "q4043": 5857, "q4044": 5858, "q4045": 5859, "q4046": 5860, "q4047": 5861, "q4048": 5862, "q4049": 5863, "q405": 5864, "q4050": 5865, "q4051": 5866, "q4052": 5867, "q4053": 5868, "q4054": 5869, "q4055": 5870, "q4056": 5871, "q4057": 5872, "q4058": 5873, "q4059": 5874, "q406": 5875, "q4060": 5876, "q4061": 5877, "q4062": 5878, "q4063": 5879, "q4064": 5880, "q4065": 5881, "q4066": 5882, "q4067": 5883, "q4068": 5884, "q4069": 5885, "q407": 5886, "q4070": 5887, "q4071": 5888, "q4072": 5889, "q4073": 5890, "q4074": 5891, "q4075": 5892, "q4076": 5893, "q4077": 5894, "q4078": 5895, "q4079": 5896, "q408": 5897, "q4080": 5898, "q4081": 5899, "q4082": 5900, "q4083": 5901, "q4084": 5902, "q4085": 5903, "q4086": 5904, "q4087": 5905, "q4088": 5906, "q4089": 5907, "q409": 5908, "q4090": 5909, "q4091": 5910, "q4092": 5911, "q4093": 5912, "q4094": 5913, "q4095": 5914, "q4096": 5915, "q4097": 5916, "q4098": 5917, "q4099": 5918, "q41": 5919, "q410": 5920, "q4100": 5921, "q4101": 5922, "q4102": 5923, "q4103": 5924, "q4104": 5925, "q4105": 5926, "q4106": 5927, "q4107": 5928, "q4108": 5929, "q4109": 5930, "q411": 5931, "q4110": 5932, "q4111": 5933, "q4112": 5934, "q4113": 5935, "q4114": 5936, "q4115": 5937, "q4116": 5938, "q4117": 5939, "q4118": 5940, "q4119": 5941, "q412": 5942, "q4120": 5943, "q4121": 5944, "q4122": 5945, "q4123": 5946, "q4124": 5947, "q4125": 5948, "q4126": 5949, "q4127": 5950, "q4128": 5951, "q4129": 5952, "q413": 5953, "q4130": 5954, "q4131": 5955, "q4132": 5956, "q4133": 5957, "q4134": 5958, "q4135": 5959, "q4136": 5960, "q4137": 5961, "q4138": 5962, "q4139": 5963, "q414": 5964, "q4140": 5965, "q4141": 5966, "q4142": 5967, "q4143": 5968, "q4144": 5969, "q4145": 5970, "q4146": 5971, "q4147": 5972, "q4148": 5973, "q4149": 5974, "q415": 5975, "q4150": 5976, "q4151": 5977, "q4153": 5978, "q4154": 5979, "q4155": 5980, "q4156": 5981, "q4157": 5982, "q4158": 5983, "q4159": 5984, "q416": 5985, "q4160": 5986, "q4161": 5987, "q4162": 5988, "q4163": 5989, "q4164": 5990, "q4165": 5991, "q4166": 5992, "q4167": 5993, "q4168": 5994, "q4169": 5995, "q417": 5996, "q4170": 5997, "q4171": 5998, "q4172": 5999, "q4173": 6000, "q4174": 6001, "q4175": 6002, "q4176": 6003, "q4177": 6004, "q4178": 6005, "q4179": 6006, "q418": 6007, "q4180": 6008, "q4181": 6009, "q4182": 6010, "q4183": 6011, "q4184": 6012, "q4185": 6013, "q4186": 6014, "q4187": 6015, "q4188": 6016, "q4189": 6017, "q419": 6018, "q4190": 6019, "q4191": 6020, "q4192": 6021, "q4193": 6022, "q4194": 6023, "q4195": 6024, "q4196": 6025, "q4197": 6026, "q4198": 6027, "q4199": 6028, "q42": 6029, "q420": 6030, "q4200": 6031, "q4201": 6032, "q4202": 6033, "q4203": 6034, "q4204": 6035, "q4205": 6036, "q4206": 6037, "q4207": 6038, "q4208": 6039, "q4209": 6040, "q421": 6041, "q4210": 6042, "q4211": 6043, "q4212": 6044, "q4213": 6045, "q4214": 6046, "q4215": 6047, "q4216": 6048, "q4217": 6049, "q4218": 6050, "q4219": 6051, "q422": 6052, "q4220": 6053, "q4221": 6054, "q4222": 6055, "q4224": 6056, "q4225": 6057, "q4226": 6058, "q4227": 6059, "q4228": 6060, "q4229": 6061, "q423": 6062, "q4230": 6063, "q4231": 6064, "q4232": 6065, "q4233": 6066, "q4234": 6067, "q4235": 6068, "q4236": 6069, "q4237": 6070, "q4238": 6071, "q4239": 6072, "q424": 6073, "q4240": 6074, "q4242": 6075, "q4243": 6076, "q4244": 6077, "q4245": 6078, "q4246": 6079, "q4247": 6080, "q4248": 6081, "q4249": 6082, "q425": 6083, "q4250": 6084, "q4251": 6085, "q4252": 6086, "q4253": 6087, "q4254": 6088, "q4255": 6089, "q4256": 6090, "q4257": 6091, "q4258": 6092, "q4259": 6093, "q426": 6094, "q4260": 6095, "q4261": 6096, "q4262": 6097, "q4263": 6098, "q4264": 6099, "q4265": 6100, "q4266": 6101, "q4267": 6102, "q4268": 6103, "q4269": 6104, "q427": 6105, "q4270": 6106, "q4271": 6107, "q4272": 6108, "q4273": 6109, "q4274": 6110, "q4275": 6111, "q4276": 6112, "q4277": 6113, "q4278": 6114, "q4279": 6115, "q428": 6116, "q4280": 6117, "q4281": 6118, "q4282": 6119, "q4283": 6120, "q4284": 6121, "q4285": 6122, "q4286": 6123, "q4287": 6124, "q4288": 6125, "q4289": 6126, "q429": 6127, "q4290": 6128, "q4291": 6129, "q4292": 6130, "q4293": 6131, "q4294": 6132, "q4295": 6133, "q4296": 6134, "q4297": 6135, "q4298": 6136, "q4299": 6137, "q43": 6138, "q430": 6139, "q4300": 6140, "q4301": 6141, "q4302": 6142, "q4303": 6143, "q4304": 6144, "q4305": 6145, "q4306": 6146, "q4307": 6147, "q4308": 6148, "q4309": 6149, "q431": 6150, "q4310": 6151, "q4311": 6152, "q4312": 6153, "q4313": 6154, "q4314": 6155, "q4315": 6156, "q4316": 6157, "q4317": 6158, "q4318": 6159, "q4319": 6160, "q432": 6161, "q4320": 6162, "q4321": 6163, "q4322": 6164, "q4323": 6165, "q4324": 6166, "q4325": 6167, "q4326": 6168, "q4327": 6169, "q4328": 6170, "q4329": 6171, "q433": 6172, "q4330": 6173, "q4331": 6174, "q4332": 6175, "q4333": 6176, "q4334": 6177, "q4336": 6178, "q4337": 6179, "q4338": 6180, "q4339": 6181, "q434": 6182, "q4340": 6183, "q4342": 6184, "q4343": 6185, "q4344": 6186, "q4345": 6187, "q4346": 6188, "q4347": 6189, "q4348": 6190, "q4349": 6191, "q435": 6192, "q4350": 6193, "q4351": 6194, "q4352": 6195, "q4353": 6196, "q4354": 6197, "q4355": 6198, "q4356": 6199, "q4357": 6200, "q4358": 6201, "q4359": 6202, "q436": 6203, "q4360": 6204, "q4361": 6205, "q4362": 6206, "q4363": 6207, "q4364": 6208, "q4365": 6209, "q4366": 6210, "q4367": 6211, "q4368": 6212, "q4369": 6213, "q437": 6214, "q4370": 6215, "q4371": 6216, "q4372": 6217, "q4373": 6218, "q4374": 6219, "q4375": 6220, "q4376": 6221, "q4377": 6222, "q4378": 6223, "q4379": 6224, "q438": 6225, "q4380": 6226, "q4381": 6227, "q4382": 6228, "q4383": 6229, "q4384": 6230, "q4385": 6231, "q4386": 6232, "q4387": 6233, "q4388": 6234, "q4389": 6235, "q439": 6236, "q4390": 6237, "q4391": 6238, "q4393": 6239, "q4394": 6240, "q4395": 6241, "q4396": 6242, "q4397": 6243, "q4398": 6244, "q4399": 6245, "q44": 6246, "q440": 6247, "q4400": 6248, "q4401": 6249, "q4402": 6250, "q4403": 6251, "q4404": 6252, "q4405": 6253, "q4406": 6254, "q4407": 6255, "q4408": 6256, "q4409": 6257, "q4410": 6258, "q4411": 6259, "q4412": 6260, "q4413": 6261, "q4414": 6262, "q4415": 6263, "q4416": 6264, "q4417": 6265, "q4418": 6266, "q4419": 6267, "q442": 6268, "q4420": 6269, "q4421": 6270, "q4422": 6271, "q4423": 6272, "q4424": 6273, "q4425": 6274, "q4426": 6275, "q4427": 6276, "q4428": 6277, "q4429": 6278, "q443": 6279, "q4430": 6280, "q4431": 6281, "q4432": 6282, "q4433": 6283, "q4434": 6284, "q4435": 6285, "q4436": 6286, "q4437": 6287, "q4438": 6288, "q4439": 6289, "q444": 6290, "q4440": 6291, "q4441": 6292, "q4442": 6293, "q4443": 6294, "q4444": 6295, "q4445": 6296, "q4446": 6297, "q4447": 6298, "q4448": 6299, "q4449": 6300, "q445": 6301, "q4450": 6302, "q4452": 6303, "q4453": 6304, "q4454": 6305, "q4456": 6306, "q4457": 6307, "q4458": 6308, "q4459": 6309, "q446": 6310, "q4460": 6311, "q4461": 6312, "q4462": 6313, "q4463": 6314, "q4464": 6315, "q4465": 6316, "q4466": 6317, "q4467": 6318, "q4468": 6319, "q4469": 6320, "q447": 6321, "q4470": 6322, "q4471": 6323, "q4472": 6324, "q4473": 6325, "q4474": 6326, "q4475": 6327, "q4476": 6328, "q4477": 6329, "q4478": 6330, "q4479": 6331, "q448": 6332, "q4480": 6333, "q4481": 6334, "q4482": 6335, "q4483": 6336, "q4484": 6337, "q4485": 6338, "q4486": 6339, "q4487": 6340, "q4488": 6341, "q4489": 6342, "q449": 6343, "q4490": 6344, "q4491": 6345, "q4492": 6346, "q4493": 6347, "q4494": 6348, "q4495": 6349, "q4497": 6350, "q4498": 6351, "q4499": 6352, "q45": 6353, "q450": 6354, "q4500": 6355, "q4501": 6356, "q4502": 6357, "q4503": 6358, "q4504": 6359, "q4505": 6360, "q4506": 6361, "q4507": 6362, "q4508": 6363, "q4509": 6364, "q451": 6365, "q4510": 6366, "q4511": 6367, "q4512": 6368, "q4513": 6369, "q4514": 6370, "q4515": 6371, "q4516": 6372, "q4517": 6373, "q4518": 6374, "q4519": 6375, "q452": 6376, "q4520": 6377, "q4521": 6378, "q4522": 6379, "q4523": 6380, "q4524": 6381, "q4525": 6382, "q4526": 6383, "q4527": 6384, "q4528": 6385, "q4529": 6386, "q453": 6387, "q4530": 6388, "q4531": 6389, "q4532": 6390, "q4533": 6391, "q4534": 6392, "q4535": 6393, "q4536": 6394, "q4537": 6395, "q4538": 6396, "q4539": 6397, "q454": 6398, "q4540": 6399, "q4541": 6400, "q4542": 6401, "q4543": 6402, "q4544": 6403, "q4545": 6404, "q4546": 6405, "q4547": 6406, "q4548": 6407, "q4549": 6408, "q455": 6409, "q4550": 6410, "q4551": 6411, "q4552": 6412, "q4553": 6413, "q4554": 6414, "q4555": 6415, "q4556": 6416, "q4557": 6417, "q4558": 6418, "q4559": 6419, "q456": 6420, "q4560": 6421, "q4561": 6422, "q4562": 6423, "q4563": 6424, "q4564": 6425, "q4565": 6426, "q4566": 6427, "q4567": 6428, "q4568": 6429, "q4569": 6430, "q457": 6431, "q4570": 6432, "q4571": 6433, "q4572": 6434, "q4573": 6435, "q4574": 6436, "q4575": 6437, "q4577": 6438, "q4578": 6439, "q4579": 6440, "q458": 6441, "q4580": 6442, "q4581": 6443, "q4582": 6444, "q4583": 6445, "q4584": 6446, "q4585": 6447, "q4586": 6448, "q4587": 6449, "q4588": 6450, "q4589": 6451, "q459": 6452, "q4590": 6453, "q4591": 6454, "q4592": 6455, "q4593": 6456, "q4594": 6457, "q4595": 6458, "q4596": 6459, "q4597": 6460, "q4598": 6461, "q4599": 6462, "q46": 6463, "q460": 6464, "q4600": 6465, "q4601": 6466, "q4602": 6467, "q4603": 6468, "q4604": 6469, "q4605": 6470, "q4606": 6471, "q4607": 6472, "q4608": 6473, "q4609": 6474, "q461": 6475, "q4610": 6476, "q4611": 6477, "q4612": 6478, "q4613": 6479, "q4614": 6480, "q4615": 6481, "q4616": 6482, "q4617": 6483, "q4618": 6484, "q4619": 6485, "q462": 6486, "q4620": 6487, "q4621": 6488, "q4622": 6489, "q4623": 6490, "q4625": 6491, "q4626": 6492, "q4627": 6493, "q4628": 6494, "q4629": 6495, "q463": 6496, "q4630": 6497, "q4631": 6498, "q4632": 6499, "q4633": 6500, "q4634": 6501, "q4635": 6502, "q4636": 6503, "q4637": 6504, "q4638": 6505, "q4639": 6506, "q464": 6507, "q4640": 6508, "q4641": 6509, "q4642": 6510, "q4643": 6511, "q4644": 6512, "q4645": 6513, "q4646": 6514, "q4647": 6515, "q4648": 6516, "q4649": 6517, "q465": 6518, "q4650": 6519, "q4651": 6520, "q4652": 6521, "q4653": 6522, "q4654": 6523, "q4655": 6524, "q4656": 6525, "q4657": 6526, "q4658": 6527, "q4659": 6528, "q466": 6529, "q4660": 6530, "q4661": 6531, "q4662": 6532, "q4663": 6533, "q4664": 6534, "q4665": 6535, "q4666": 6536, "q4667": 6537, "q4668": 6538, "q4669": 6539, "q467": 6540, "q4670": 6541, "q4671": 6542, "q4672": 6543, "q4673": 6544, "q4674": 6545, "q4675": 6546, "q4676": 6547, "q4677": 6548, "q4678": 6549, "q4679": 6550, "q468": 6551, "q4680": 6552, "q4681": 6553, "q4683": 6554, "q4684": 6555, "q4685": 6556, "q4686": 6557, "q4687": 6558, "q4688": 6559, "q4689": 6560, "q469": 6561, "q4690": 6562, "q4691": 6563, "q4692": 6564, "q4693": 6565, "q4694": 6566, "q4695": 6567, "q4696": 6568, "q4697": 6569, "q4698": 6570, "q4699": 6571, "q47": 6572, "q470": 6573, "q4700": 6574, "q4701": 6575, "q4703": 6576, "q4704": 6577, "q4705": 6578, "q4706": 6579, "q4707": 6580, "q4708": 6581, "q4709": 6582, "q471": 6583, "q4710": 6584, "q4711": 6585, "q4712": 6586, "q4714": 6587, "q4715": 6588, "q4716": 6589, "q4718": 6590, "q4719": 6591, "q472": 6592, "q4720": 6593, "q4722": 6594, "q4724": 6595, "q4725": 6596, "q4726": 6597, "q4728": 6598, "q4729": 6599, "q473": 6600, "q4730": 6601, "q4731": 6602, "q4732": 6603, "q4733": 6604, "q4734": 6605, "q4735": 6606, "q4736": 6607, "q4737": 6608, "q4738": 6609, "q4739": 6610, "q474": 6611, "q4740": 6612, "q4741": 6613, "q4742": 6614, "q4743": 6615, "q4744": 6616, "q4745": 6617, "q4746": 6618, "q4747": 6619, "q4748": 6620, "q4749": 6621, "q475": 6622, "q4750": 6623, "q4751": 6624, "q4752": 6625, "q4753": 6626, "q4754": 6627, "q4755": 6628, "q4756": 6629, "q4757": 6630, "q4758": 6631, "q4759": 6632, "q476": 6633, "q4760": 6634, "q4761": 6635, "q4762": 6636, "q4763": 6637, "q4764": 6638, "q4765": 6639, "q4766": 6640, "q4767": 6641, "q4768": 6642, "q4769": 6643, "q477": 6644, "q4770": 6645, "q4771": 6646, "q4772": 6647, "q4773": 6648, "q4774": 6649, "q4775": 6650, "q4776": 6651, "q4777": 6652, "q4778": 6653, "q4779": 6654, "q478": 6655, "q4780": 6656, "q4781": 6657, "q4782": 6658, "q4783": 6659, "q4784": 6660, "q4785": 6661, "q4786": 6662, "q4787": 6663, "q4788": 6664, "q4789": 6665, "q479": 6666, "q4790": 6667, "q4791": 6668, "q4792": 6669, "q4793": 6670, "q4794": 6671, "q4795": 6672, "q4796": 6673, "q4797": 6674, "q4798": 6675, "q4799": 6676, "q48": 6677, "q480": 6678, "q4800": 6679, "q4801": 6680, "q4802": 6681, "q4803": 6682, "q4804": 6683, "q4805": 6684, "q4807": 6685, "q4808": 6686, "q4809": 6687, "q481": 6688, "q4810": 6689, "q4811": 6690, "q4812": 6691, "q4813": 6692, "q4814": 6693, "q4815": 6694, "q4816": 6695, "q4817": 6696, "q4818": 6697, "q4819": 6698, "q482": 6699, "q4820": 6700, "q4821": 6701, "q4822": 6702, "q4823": 6703, "q4825": 6704, "q4826": 6705, "q4827": 6706, "q4828": 6707, "q4829": 6708, "q483": 6709, "q4830": 6710, "q4831": 6711, "q4832": 6712, "q4833": 6713, "q4834": 6714, "q4835": 6715, "q4836": 6716, "q4837": 6717, "q4838": 6718, "q4839": 6719, "q484": 6720, "q4840": 6721, "q4841": 6722, "q4842": 6723, "q4843": 6724, "q4844": 6725, "q4845": 6726, "q4846": 6727, "q4847": 6728, "q4848": 6729, "q4849": 6730, "q485": 6731, "q4850": 6732, "q4851": 6733, "q4852": 6734, "q4853": 6735, "q4854": 6736, "q4855": 6737, "q4856": 6738, "q4857": 6739, "q4858": 6740, "q4859": 6741, "q486": 6742, "q4860": 6743, "q4861": 6744, "q4862": 6745, "q4863": 6746, "q4864": 6747, "q4865": 6748, "q4866": 6749, "q4867": 6750, "q4868": 6751, "q4869": 6752, "q487": 6753, "q4870": 6754, "q4871": 6755, "q4872": 6756, "q4873": 6757, "q4874": 6758, "q4875": 6759, "q4876": 6760, "q4877": 6761, "q4878": 6762, "q4879": 6763, "q488": 6764, "q4880": 6765, "q4881": 6766, "q4882": 6767, "q4883": 6768, "q4884": 6769, "q4885": 6770, "q4886": 6771, "q4887": 6772, "q4888": 6773, "q4889": 6774, "q489": 6775, "q4890": 6776, "q4891": 6777, "q4892": 6778, "q4893": 6779, "q4894": 6780, "q4895": 6781, "q4896": 6782, "q4897": 6783, "q4898": 6784, "q4899": 6785, "q49": 6786, "q490": 6787, "q4900": 6788, "q4901": 6789, "q4902": 6790, "q4903": 6791, "q4904": 6792, "q4905": 6793, "q4906": 6794, "q4907": 6795, "q4908": 6796, "q4909": 6797, "q491": 6798, "q4910": 6799, "q4911": 6800, "q4912": 6801, "q4913": 6802, "q4914": 6803, "q4915": 6804, "q4916": 6805, "q4917": 6806, "q4918": 6807, "q4919": 6808, "q492": 6809, "q4920": 6810, "q4921": 6811, "q4922": 6812, "q4923": 6813, "q4924": 6814, "q4925": 6815, "q4926": 6816, "q4927": 6817, "q4928": 6818, "q4929": 6819, "q493": 6820, "q4930": 6821, "q4931": 6822, "q4932": 6823, "q4933": 6824, "q4935": 6825, "q4936": 6826, "q4937": 6827, "q4938": 6828, "q4939": 6829, "q494": 6830, "q4940": 6831, "q4941": 6832, "q4942": 6833, "q4943": 6834, "q4944": 6835, "q4945": 6836, "q4946": 6837, "q4947": 6838, "q4948": 6839, "q4949": 6840, "q495": 6841, "q4950": 6842, "q4951": 6843, "q4952": 6844, "q4953": 6845, "q4954": 6846, "q4955": 6847, "q4956": 6848, "q4957": 6849, "q4958": 6850, "q4959": 6851, "q496": 6852, "q4960": 6853, "q4961": 6854, "q4962": 6855, "q4963": 6856, "q4964": 6857, "q4965": 6858, "q4966": 6859, "q4967": 6860, "q4968": 6861, "q4969": 6862, "q497": 6863, "q4970": 6864, "q4971": 6865, "q4972": 6866, "q4973": 6867, "q4974": 6868, "q4975": 6869, "q4976": 6870, "q4977": 6871, "q4978": 6872, "q4979": 6873, "q498": 6874, "q4980": 6875, "q4981": 6876, "q4983": 6877, "q4984": 6878, "q4985": 6879, "q4986": 6880, "q4987": 6881, "q4988": 6882, "q4989": 6883, "q499": 6884, "q4990": 6885, "q4991": 6886, "q4992": 6887, "q4993": 6888, "q4994": 6889, "q4995": 6890, "q4996": 6891, "q4997": 6892, "q4998": 6893, "q4999": 6894, "q5": 6895, "q50": 6896, "q500": 6897, "q5000": 6898, "q5001": 6899, "q5002": 6900, "q5003": 6901, "q5004": 6902, "q5005": 6903, "q5006": 6904, "q5008": 6905, "q5009": 6906, "q501": 6907, "q5010": 6908, "q5011": 6909, "q5012": 6910, "q5013": 6911, "q5014": 6912, "q5015": 6913, "q5016": 6914, "q5017": 6915, "q5018": 6916, "q5019": 6917, "q502": 6918, "q5020": 6919, "q5021": 6920, "q5022": 6921, "q5023": 6922, "q5024": 6923, "q5025": 6924, "q5026": 6925, "q5027": 6926, "q5028": 6927, "q5029": 6928, "q503": 6929, "q5030": 6930, "q5031": 6931, "q5032": 6932, "q5033": 6933, "q5034": 6934, "q5035": 6935, "q5036": 6936, "q5037": 6937, "q5038": 6938, "q5039": 6939, "q504": 6940, "q5040": 6941, "q5041": 6942, "q5042": 6943, "q5043": 6944, "q5044": 6945, "q5045": 6946, "q5046": 6947, "q5047": 6948, "q5048": 6949, "q5049": 6950, "q505": 6951, "q5050": 6952, "q5051": 6953, "q5052": 6954, "q5053": 6955, "q5054": 6956, "q5055": 6957, "q5056": 6958, "q5057": 6959, "q5058": 6960, "q5059": 6961, "q506": 6962, "q5060": 6963, "q5061": 6964, "q5062": 6965, "q5063": 6966, "q5064": 6967, "q5065": 6968, "q5066": 6969, "q5067": 6970, "q5068": 6971, "q5069": 6972, "q507": 6973, "q5070": 6974, "q5071": 6975, "q5072": 6976, "q5073": 6977, "q5074": 6978, "q5075": 6979, "q5076": 6980, "q5077": 6981, "q5078": 6982, "q5079": 6983, "q508": 6984, "q5080": 6985, "q5081": 6986, "q5082": 6987, "q5083": 6988, "q5084": 6989, "q5085": 6990, "q5086": 6991, "q5087": 6992, "q5088": 6993, "q5089": 6994, "q509": 6995, "q5090": 6996, "q5091": 6997, "q5092": 6998, "q5093": 6999, "q5094": 7000, "q5095": 7001, "q5096": 7002, "q5097": 7003, "q5098": 7004, "q5099": 7005, "q51": 7006, "q510": 7007, "q5100": 7008, "q5101": 7009, "q5102": 7010, "q5103": 7011, "q5104": 7012, "q5105": 7013, "q5107": 7014, "q5108": 7015, "q5109": 7016, "q511": 7017, "q5110": 7018, "q5111": 7019, "q5112": 7020, "q5113": 7021, "q5114": 7022, "q5115": 7023, "q5116": 7024, "q5117": 7025, "q5118": 7026, "q5119": 7027, "q512": 7028, "q5120": 7029, "q5121": 7030, "q5122": 7031, "q5123": 7032, "q5124": 7033, "q5125": 7034, "q5126": 7035, "q5127": 7036, "q5128": 7037, "q5129": 7038, "q513": 7039, "q5130": 7040, "q5131": 7041, "q5132": 7042, "q5133": 7043, "q5134": 7044, "q5135": 7045, "q5136": 7046, "q5137": 7047, "q5138": 7048, "q5139": 7049, "q514": 7050, "q5140": 7051, "q5141": 7052, "q5142": 7053, "q5143": 7054, "q5145": 7055, "q5146": 7056, "q5147": 7057, "q5148": 7058, "q5149": 7059, "q515": 7060, "q5150": 7061, "q5151": 7062, "q5152": 7063, "q5153": 7064, "q5154": 7065, "q5155": 7066, "q5156": 7067, "q5157": 7068, "q5158": 7069, "q5159": 7070, "q516": 7071, "q5160": 7072, "q5161": 7073, "q5162": 7074, "q5163": 7075, "q5164": 7076, "q5165": 7077, "q5166": 7078, "q5167": 7079, "q5168": 7080, "q5169": 7081, "q517": 7082, "q5170": 7083, "q5171": 7084, "q5172": 7085, "q5173": 7086, "q5174": 7087, "q5175": 7088, "q5176": 7089, "q5177": 7090, "q5178": 7091, "q5179": 7092, "q518": 7093, "q5180": 7094, "q5181": 7095, "q5182": 7096, "q5183": 7097, "q5184": 7098, "q5185": 7099, "q5186": 7100, "q5187": 7101, "q5188": 7102, "q5189": 7103, "q519": 7104, "q5190": 7105, "q5191": 7106, "q5192": 7107, "q5193": 7108, "q5194": 7109, "q5195": 7110, "q5196": 7111, "q5197": 7112, "q5198": 7113, "q5199": 7114, "q52": 7115, "q520": 7116, "q5200": 7117, "q5201": 7118, "q5202": 7119, "q5203": 7120, "q5204": 7121, "q5205": 7122, "q5206": 7123, "q5207": 7124, "q5208": 7125, "q5209": 7126, "q521": 7127, "q5210": 7128, "q5211": 7129, "q5212": 7130, "q5213": 7131, "q5214": 7132, "q5215": 7133, "q5216": 7134, "q5217": 7135, "q5218": 7136, "q5219": 7137, "q522": 7138, "q5220": 7139, "q5221": 7140, "q5222": 7141, "q5223": 7142, "q5224": 7143, "q5225": 7144, "q5226": 7145, "q5227": 7146, "q5228": 7147, "q5229": 7148, "q523": 7149, "q5230": 7150, "q5231": 7151, "q5232": 7152, "q5233": 7153, "q5234": 7154, "q5235": 7155, "q5236": 7156, "q5237": 7157, "q5238": 7158, "q5239": 7159, "q524": 7160, "q5240": 7161, "q5241": 7162, "q5242": 7163, "q5243": 7164, "q5244": 7165, "q5245": 7166, "q5246": 7167, "q5247": 7168, "q5248": 7169, "q5249": 7170, "q525": 7171, "q5250": 7172, "q5251": 7173, "q5252": 7174, "q5253": 7175, "q5254": 7176, "q5255": 7177, "q5256": 7178, "q5257": 7179, "q5258": 7180, "q5259": 7181, "q526": 7182, "q5260": 7183, "q5261": 7184, "q5262": 7185, "q5263": 7186, "q5264": 7187, "q5265": 7188, "q5266": 7189, "q5267": 7190, "q5268": 7191, "q5269": 7192, "q527": 7193, "q5270": 7194, "q5271": 7195, "q5272": 7196, "q5273": 7197, "q5274": 7198, "q5275": 7199, "q5276": 7200, "q5277": 7201, "q5279": 7202, "q528": 7203, "q5280": 7204, "q5281": 7205, "q5282": 7206, "q5283": 7207, "q5284": 7208, "q5285": 7209, "q5286": 7210, "q5287": 7211, "q5288": 7212, "q5289": 7213, "q529": 7214, "q5290": 7215, "q5291": 7216, "q5292": 7217, "q5293": 7218, "q5294": 7219, "q5295": 7220, "q5296": 7221, "q5297": 7222, "q5298": 7223, "q5299": 7224, "q53": 7225, "q530": 7226, "q5300": 7227, "q5301": 7228, "q5302": 7229, "q5303": 7230, "q5304": 7231, "q5305": 7232, "q5306": 7233, "q5307": 7234, "q5308": 7235, "q5309": 7236, "q531": 7237, "q5310": 7238, "q5311": 7239, "q5312": 7240, "q5313": 7241, "q5314": 7242, "q5315": 7243, "q5316": 7244, "q5317": 7245, "q5318": 7246, "q5319": 7247, "q532": 7248, "q5320": 7249, "q5321": 7250, "q5322": 7251, "q5323": 7252, "q5324": 7253, "q5325": 7254, "q5326": 7255, "q5327": 7256, "q5328": 7257, "q5329": 7258, "q533": 7259, "q5330": 7260, "q5331": 7261, "q5332": 7262, "q5333": 7263, "q5334": 7264, "q5335": 7265, "q5336": 7266, "q5337": 7267, "q5338": 7268, "q5339": 7269, "q534": 7270, "q5340": 7271, "q5341": 7272, "q5342": 7273, "q5343": 7274, "q5344": 7275, "q5345": 7276, "q5346": 7277, "q5347": 7278, "q5348": 7279, "q5349": 7280, "q535": 7281, "q5350": 7282, "q5351": 7283, "q5352": 7284, "q5353": 7285, "q5354": 7286, "q5355": 7287, "q5356": 7288, "q5357": 7289, "q5358": 7290, "q5359": 7291, "q536": 7292, "q5360": 7293, "q5361": 7294, "q5362": 7295, "q5363": 7296, "q5364": 7297, "q5365": 7298, "q5366": 7299, "q5367": 7300, "q5368": 7301, "q5369": 7302, "q537": 7303, "q5370": 7304, "q5371": 7305, "q5372": 7306, "q5373": 7307, "q5374": 7308, "q5375": 7309, "q5376": 7310, "q5377": 7311, "q5378": 7312, "q5379": 7313, "q538": 7314, "q5380": 7315, "q5381": 7316, "q5382": 7317, "q5383": 7318, "q5384": 7319, "q5385": 7320, "q5386": 7321, "q5387": 7322, "q5388": 7323, "q5389": 7324, "q539": 7325, "q5390": 7326, "q5391": 7327, "q5392": 7328, "q5393": 7329, "q5394": 7330, "q5395": 7331, "q5396": 7332, "q5397": 7333, "q5398": 7334, "q5399": 7335, "q54": 7336, "q540": 7337, "q5400": 7338, "q5401": 7339, "q5402": 7340, "q5403": 7341, "q5404": 7342, "q5405": 7343, "q5406": 7344, "q5407": 7345, "q5408": 7346, "q5409": 7347, "q541": 7348, "q5410": 7349, "q5411": 7350, "q5412": 7351, "q5413": 7352, "q5414": 7353, "q5415": 7354, "q5416": 7355, "q5417": 7356, "q5418": 7357, "q5419": 7358, "q542": 7359, "q5420": 7360, "q5421": 7361, "q5422": 7362, "q5423": 7363, "q5424": 7364, "q5425": 7365, "q5426": 7366, "q5427": 7367, "q5428": 7368, "q5429": 7369, "q543": 7370, "q5430": 7371, "q5431": 7372, "q5432": 7373, "q5433": 7374, "q5434": 7375, "q5435": 7376, "q5436": 7377, "q5437": 7378, "q5438": 7379, "q5439": 7380, "q544": 7381, "q5440": 7382, "q5441": 7383, "q5442": 7384, "q5443": 7385, "q5444": 7386, "q5445": 7387, "q5446": 7388, "q5447": 7389, "q5448": 7390, "q5449": 7391, "q545": 7392, "q5450": 7393, "q5451": 7394, "q5452": 7395, "q5453": 7396, "q5454": 7397, "q5455": 7398, "q5456": 7399, "q5457": 7400, "q5458": 7401, "q5459": 7402, "q546": 7403, "q5460": 7404, "q5461": 7405, "q5463": 7406, "q5464": 7407, "q5465": 7408, "q5466": 7409, "q5467": 7410, "q5468": 7411, "q5469": 7412, "q547": 7413, "q5470": 7414, "q5471": 7415, "q5472": 7416, "q5473": 7417, "q5474": 7418, "q5475": 7419, "q5476": 7420, "q5477": 7421, "q5478": 7422, "q5479": 7423, "q548": 7424, "q5480": 7425, "q5481": 7426, "q5482": 7427, "q5483": 7428, "q5484": 7429, "q5485": 7430, "q5486": 7431, "q5487": 7432, "q5488": 7433, "q5489": 7434, "q549": 7435, "q5490": 7436, "q5491": 7437, "q5492": 7438, "q5493": 7439, "q5494": 7440, "q5495": 7441, "q5496": 7442, "q5497": 7443, "q5498": 7444, "q5499": 7445, "q55": 7446, "q550": 7447, "q5500": 7448, "q5501": 7449, "q5502": 7450, "q5503": 7451, "q5504": 7452, "q5505": 7453, "q5506": 7454, "q5507": 7455, "q5508": 7456, "q5509": 7457, "q551": 7458, "q5510": 7459, "q5511": 7460, "q5512": 7461, "q5513": 7462, "q5514": 7463, "q5515": 7464, "q5516": 7465, "q5517": 7466, "q5518": 7467, "q5519": 7468, "q552": 7469, "q5520": 7470, "q5521": 7471, "q5522": 7472, "q5523": 7473, "q5524": 7474, "q5525": 7475, "q5526": 7476, "q5527": 7477, "q5528": 7478, "q5529": 7479, "q553": 7480, "q5530": 7481, "q5531": 7482, "q5532": 7483, "q5533": 7484, "q5534": 7485, "q5535": 7486, "q5536": 7487, "q5537": 7488, "q5538": 7489, "q5539": 7490, "q554": 7491, "q5540": 7492, "q5542": 7493, "q5543": 7494, "q5544": 7495, "q5545": 7496, "q5546": 7497, "q5547": 7498, "q5548": 7499, "q5549": 7500, "q555": 7501, "q5550": 7502, "q5551": 7503, "q5552": 7504, "q5553": 7505, "q5554": 7506, "q5555": 7507, "q5556": 7508, "q5557": 7509, "q5558": 7510, "q5559": 7511, "q556": 7512, "q5560": 7513, "q5561": 7514, "q5562": 7515, "q5563": 7516, "q5564": 7517, "q5565": 7518, "q5566": 7519, "q5567": 7520, "q5568": 7521, "q5569": 7522, "q557": 7523, "q5570": 7524, "q5571": 7525, "q5572": 7526, "q5573": 7527, "q5574": 7528, "q5575": 7529, "q5576": 7530, "q5577": 7531, "q5578": 7532, "q558": 7533, "q5580": 7534, "q5582": 7535, "q5583": 7536, "q5584": 7537, "q5585": 7538, "q5586": 7539, "q5587": 7540, "q5588": 7541, "q5589": 7542, "q559": 7543, "q5590": 7544, "q5591": 7545, "q5592": 7546, "q5593": 7547, "q5594": 7548, "q5595": 7549, "q5596": 7550, "q5597": 7551, "q5598": 7552, "q5599": 7553, "q56": 7554, "q560": 7555, "q5600": 7556, "q5602": 7557, "q5603": 7558, "q5605": 7559, "q5606": 7560, "q5607": 7561, "q5608": 7562, "q5609": 7563, "q561": 7564, "q5610": 7565, "q5611": 7566, "q5612": 7567, "q5613": 7568, "q5614": 7569, "q5615": 7570, "q5616": 7571, "q5617": 7572, "q5618": 7573, "q5619": 7574, "q562": 7575, "q5620": 7576, "q5621": 7577, "q5622": 7578, "q5623": 7579, "q5624": 7580, "q5625": 7581, "q5626": 7582, "q5627": 7583, "q5628": 7584, "q5629": 7585, "q563": 7586, "q5630": 7587, "q5631": 7588, "q5632": 7589, "q5633": 7590, "q5634": 7591, "q5635": 7592, "q5636": 7593, "q5637": 7594, "q5638": 7595, "q5639": 7596, "q564": 7597, "q5640": 7598, "q5642": 7599, "q5643": 7600, "q5644": 7601, "q5645": 7602, "q5646": 7603, "q5647": 7604, "q5648": 7605, "q5649": 7606, "q565": 7607, "q5650": 7608, "q5651": 7609, "q5652": 7610, "q5653": 7611, "q5654": 7612, "q5655": 7613, "q5656": 7614, "q5657": 7615, "q5658": 7616, "q5659": 7617, "q566": 7618, "q5660": 7619, "q5661": 7620, "q5662": 7621, "q5663": 7622, "q5664": 7623, "q5665": 7624, "q5666": 7625, "q5667": 7626, "q5668": 7627, "q5669": 7628, "q567": 7629, "q5670": 7630, "q5671": 7631, "q5672": 7632, "q5673": 7633, "q5674": 7634, "q5675": 7635, "q5676": 7636, "q5677": 7637, "q5678": 7638, "q5679": 7639, "q568": 7640, "q5680": 7641, "q5681": 7642, "q5682": 7643, "q5683": 7644, "q5684": 7645, "q5685": 7646, "q5686": 7647, "q5687": 7648, "q5688": 7649, "q5689": 7650, "q569": 7651, "q5690": 7652, "q5691": 7653, "q5692": 7654, "q5693": 7655, "q5694": 7656, "q5695": 7657, "q5696": 7658, "q5697": 7659, "q5698": 7660, "q5699": 7661, "q57": 7662, "q570": 7663, "q5700": 7664, "q5701": 7665, "q5702": 7666, "q5703": 7667, "q5704": 7668, "q5705": 7669, "q5706": 7670, "q5707": 7671, "q5708": 7672, "q5709": 7673, "q571": 7674, "q5710": 7675, "q5711": 7676, "q5712": 7677, "q5713": 7678, "q5714": 7679, "q5715": 7680, "q5716": 7681, "q5717": 7682, "q5718": 7683, "q5719": 7684, "q572": 7685, "q5720": 7686, "q5721": 7687, "q5722": 7688, "q5723": 7689, "q5724": 7690, "q5725": 7691, "q5726": 7692, "q5727": 7693, "q5728": 7694, "q5729": 7695, "q573": 7696, "q5730": 7697, "q5731": 7698, "q5732": 7699, "q5733": 7700, "q5734": 7701, "q5735": 7702, "q5736": 7703, "q5737": 7704, "q5738": 7705, "q5739": 7706, "q574": 7707, "q5740": 7708, "q5741": 7709, "q5742": 7710, "q5743": 7711, "q5744": 7712, "q5745": 7713, "q5746": 7714, "q5747": 7715, "q5748": 7716, "q5749": 7717, "q575": 7718, "q5750": 7719, "q5751": 7720, "q5752": 7721, "q5753": 7722, "q5754": 7723, "q5755": 7724, "q5756": 7725, "q5757": 7726, "q5758": 7727, "q5759": 7728, "q576": 7729, "q5760": 7730, "q5761": 7731, "q5762": 7732, "q5763": 7733, "q5764": 7734, "q5765": 7735, "q5766": 7736, "q5767": 7737, "q5768": 7738, "q5769": 7739, "q577": 7740, "q5770": 7741, "q5771": 7742, "q5772": 7743, "q5773": 7744, "q5774": 7745, "q5775": 7746, "q5776": 7747, "q5777": 7748, "q5778": 7749, "q5779": 7750, "q578": 7751, "q5780": 7752, "q5781": 7753, "q5782": 7754, "q5783": 7755, "q5784": 7756, "q5785": 7757, "q5786": 7758, "q5787": 7759, "q5788": 7760, "q5789": 7761, "q579": 7762, "q5790": 7763, "q5791": 7764, "q5792": 7765, "q5793": 7766, "q5794": 7767, "q5795": 7768, "q5796": 7769, "q5797": 7770, "q5798": 7771, "q5799": 7772, "q58": 7773, "q580": 7774, "q5800": 7775, "q5801": 7776, "q5802": 7777, "q5803": 7778, "q5804": 7779, "q5805": 7780, "q5807": 7781, "q5808": 7782, "q5809": 7783, "q581": 7784, "q5810": 7785, "q5811": 7786, "q5812": 7787, "q5814": 7788, "q5815": 7789, "q5816": 7790, "q5817": 7791, "q5818": 7792, "q5819": 7793, "q582": 7794, "q5820": 7795, "q5821": 7796, "q5822": 7797, "q5823": 7798, "q5824": 7799, "q5825": 7800, "q5827": 7801, "q5828": 7802, "q583": 7803, "q5830": 7804, "q5832": 7805, "q5833": 7806, "q5834": 7807, "q5835": 7808, "q5836": 7809, "q5837": 7810, "q5838": 7811, "q5839": 7812, "q584": 7813, "q5840": 7814, "q5842": 7815, "q5843": 7816, "q5844": 7817, "q5845": 7818, "q5846": 7819, "q5849": 7820, "q585": 7821, "q5850": 7822, "q5851": 7823, "q5852": 7824, "q5853": 7825, "q5854": 7826, "q5855": 7827, "q5856": 7828, "q5857": 7829, "q5858": 7830, "q5859": 7831, "q586": 7832, "q5860": 7833, "q5861": 7834, "q5862": 7835, "q5863": 7836, "q5864": 7837, "q5865": 7838, "q5867": 7839, "q5868": 7840, "q5869": 7841, "q587": 7842, "q5870": 7843, "q5871": 7844, "q5872": 7845, "q5873": 7846, "q5874": 7847, "q5875": 7848, "q5876": 7849, "q5877": 7850, "q5878": 7851, "q588": 7852, "q5880": 7853, "q5881": 7854, "q5882": 7855, "q5884": 7856, "q5885": 7857, "q5886": 7858, "q5887": 7859, "q5888": 7860, "q589": 7861, "q5891": 7862, "q5892": 7863, "q5894": 7864, "q5895": 7865, "q5896": 7866, "q5897": 7867, "q5898": 7868, "q5899": 7869, "q59": 7870, "q590": 7871, "q5900": 7872, "q5901": 7873, "q5902": 7874, "q5904": 7875, "q5905": 7876, "q5906": 7877, "q5907": 7878, "q5908": 7879, "q5909": 7880, "q591": 7881, "q5910": 7882, "q5911": 7883, "q5912": 7884, "q5913": 7885, "q5914": 7886, "q5915": 7887, "q5916": 7888, "q5917": 7889, "q5918": 7890, "q5919": 7891, "q592": 7892, "q5920": 7893, "q5921": 7894, "q5922": 7895, "q5923": 7896, "q5924": 7897, "q5925": 7898, "q5926": 7899, "q5927": 7900, "q5928": 7901, "q5929": 7902, "q593": 7903, "q5930": 7904, "q5931": 7905, "q5932": 7906, "q5933": 7907, "q5934": 7908, "q5935": 7909, "q5936": 7910, "q5937": 7911, "q5938": 7912, "q5939": 7913, "q594": 7914, "q5940": 7915, "q5941": 7916, "q5942": 7917, "q5943": 7918, "q5944": 7919, "q5945": 7920, "q5946": 7921, "q5947": 7922, "q5948": 7923, "q5949": 7924, "q595": 7925, "q5950": 7926, "q5951": 7927, "q5952": 7928, "q5953": 7929, "q5954": 7930, "q5955": 7931, "q5956": 7932, "q5957": 7933, "q5958": 7934, "q5959": 7935, "q596": 7936, "q5960": 7937, "q5961": 7938, "q5962": 7939, "q5963": 7940, "q5964": 7941, "q5965": 7942, "q5966": 7943, "q5967": 7944, "q5968": 7945, "q5969": 7946, "q597": 7947, "q5970": 7948, "q5971": 7949, "q5972": 7950, "q5973": 7951, "q5974": 7952, "q5975": 7953, "q5976": 7954, "q5977": 7955, "q5978": 7956, "q5979": 7957, "q598": 7958, "q5980": 7959, "q5982": 7960, "q5983": 7961, "q5984": 7962, "q5985": 7963, "q5986": 7964, "q5987": 7965, "q5988": 7966, "q5989": 7967, "q599": 7968, "q5990": 7969, "q5991": 7970, "q5992": 7971, "q5993": 7972, "q5994": 7973, "q5995": 7974, "q5996": 7975, "q5997": 7976, "q5998": 7977, "q5999": 7978, "q6": 7979, "q60": 7980, "q600": 7981, "q6000": 7982, "q6001": 7983, "q6002": 7984, "q6003": 7985, "q6004": 7986, "q6005": 7987, "q6006": 7988, "q6007": 7989, "q6008": 7990, "q6009": 7991, "q601": 7992, "q6010": 7993, "q6011": 7994, "q6012": 7995, "q6013": 7996, "q6014": 7997, "q6015": 7998, "q6016": 7999, "q6017": 8000, "q6018": 8001, "q6019": 8002, "q602": 8003, "q6020": 8004, "q6021": 8005, "q6022": 8006, "q6023": 8007, "q6024": 8008, "q6025": 8009, "q6026": 8010, "q6027": 8011, "q6028": 8012, "q6029": 8013, "q603": 8014, "q6030": 8015, "q6031": 8016, "q6032": 8017, "q6033": 8018, "q6034": 8019, "q6035": 8020, "q6037": 8021, "q6038": 8022, "q6039": 8023, "q604": 8024, "q6040": 8025, "q6041": 8026, "q6042": 8027, "q6043": 8028, "q6044": 8029, "q6045": 8030, "q6046": 8031, "q6047": 8032, "q6048": 8033, "q6049": 8034, "q605": 8035, "q6050": 8036, "q6051": 8037, "q6052": 8038, "q6053": 8039, "q6054": 8040, "q6055": 8041, "q6056": 8042, "q6057": 8043, "q6058": 8044, "q6059": 8045, "q606": 8046, "q6060": 8047, "q6061": 8048, "q6062": 8049, "q6063": 8050, "q6064": 8051, "q6065": 8052, "q6066": 8053, "q6067": 8054, "q6068": 8055, "q6069": 8056, "q607": 8057, "q6070": 8058, "q6071": 8059, "q6072": 8060, "q6073": 8061, "q6074": 8062, "q6075": 8063, "q6076": 8064, "q6077": 8065, "q6078": 8066, "q6079": 8067, "q608": 8068, "q6080": 8069, "q6081": 8070, "q6082": 8071, "q6083": 8072, "q6084": 8073, "q6085": 8074, "q6086": 8075, "q6087": 8076, "q6088": 8077, "q6089": 8078, "q609": 8079, "q6091": 8080, "q6092": 8081, "q6093": 8082, "q6094": 8083, "q6095": 8084, "q6096": 8085, "q6097": 8086, "q6098": 8087, "q6099": 8088, "q61": 8089, "q610": 8090, "q6100": 8091, "q6101": 8092, "q6102": 8093, "q6103": 8094, "q6104": 8095, "q6105": 8096, "q6106": 8097, "q6107": 8098, "q6108": 8099, "q6109": 8100, "q611": 8101, "q6110": 8102, "q6111": 8103, "q6112": 8104, "q6113": 8105, "q6114": 8106, "q6115": 8107, "q6116": 8108, "q6117": 8109, "q6118": 8110, "q6119": 8111, "q612": 8112, "q6120": 8113, "q6121": 8114, "q6122": 8115, "q6123": 8116, "q6124": 8117, "q6125": 8118, "q6126": 8119, "q6127": 8120, "q6128": 8121, "q6129": 8122, "q613": 8123, "q6130": 8124, "q6131": 8125, "q6132": 8126, "q6133": 8127, "q6134": 8128, "q6135": 8129, "q6136": 8130, "q6137": 8131, "q6138": 8132, "q6139": 8133, "q614": 8134, "q6140": 8135, "q6141": 8136, "q6142": 8137, "q6143": 8138, "q6144": 8139, "q6145": 8140, "q6146": 8141, "q6147": 8142, "q6148": 8143, "q6149": 8144, "q615": 8145, "q6150": 8146, "q6151": 8147, "q6152": 8148, "q6153": 8149, "q6154": 8150, "q6155": 8151, "q6156": 8152, "q6157": 8153, "q6158": 8154, "q6159": 8155, "q616": 8156, "q6160": 8157, "q6161": 8158, "q6162": 8159, "q6163": 8160, "q6164": 8161, "q6165": 8162, "q6166": 8163, "q6167": 8164, "q6168": 8165, "q6169": 8166, "q6170": 8167, "q6171": 8168, "q6172": 8169, "q6173": 8170, "q6174": 8171, "q6175": 8172, "q6176": 8173, "q6177": 8174, "q6178": 8175, "q6179": 8176, "q618": 8177, "q6180": 8178, "q6181": 8179, "q6182": 8180, "q6183": 8181, "q6184": 8182, "q6185": 8183, "q6186": 8184, "q6187": 8185, "q6188": 8186, "q6189": 8187, "q619": 8188, "q6190": 8189, "q6191": 8190, "q6192": 8191, "q6193": 8192, "q6194": 8193, "q6196": 8194, "q6197": 8195, "q6198": 8196, "q6199": 8197, "q62": 8198, "q620": 8199, "q6200": 8200, "q6201": 8201, "q6202": 8202, "q6203": 8203, "q6204": 8204, "q6205": 8205, "q6206": 8206, "q6207": 8207, "q6208": 8208, "q6209": 8209, "q621": 8210, "q6210": 8211, "q6211": 8212, "q6212": 8213, "q6213": 8214, "q6214": 8215, "q6215": 8216, "q6216": 8217, "q6217": 8218, "q6218": 8219, "q6219": 8220, "q622": 8221, "q6220": 8222, "q6221": 8223, "q6222": 8224, "q6223": 8225, "q6224": 8226, "q6225": 8227, "q6226": 8228, "q6227": 8229, "q6228": 8230, "q6229": 8231, "q623": 8232, "q6230": 8233, "q6231": 8234, "q6232": 8235, "q6233": 8236, "q6234": 8237, "q6235": 8238, "q6236": 8239, "q6237": 8240, "q6238": 8241, "q6239": 8242, "q624": 8243, "q6240": 8244, "q6241": 8245, "q6242": 8246, "q6243": 8247, "q6244": 8248, "q6245": 8249, "q6246": 8250, "q6247": 8251, "q6248": 8252, "q6249": 8253, "q625": 8254, "q6250": 8255, "q6251": 8256, "q6252": 8257, "q6253": 8258, "q6254": 8259, "q6255": 8260, "q6256": 8261, "q6257": 8262, "q6258": 8263, "q6259": 8264, "q626": 8265, "q6260": 8266, "q6261": 8267, "q6262": 8268, "q6263": 8269, "q6264": 8270, "q6265": 8271, "q6266": 8272, "q6267": 8273, "q6268": 8274, "q6269": 8275, "q627": 8276, "q6270": 8277, "q6271": 8278, "q6272": 8279, "q6273": 8280, "q6275": 8281, "q6276": 8282, "q6277": 8283, "q6278": 8284, "q6279": 8285, "q628": 8286, "q6280": 8287, "q6281": 8288, "q6282": 8289, "q6283": 8290, "q6284": 8291, "q6285": 8292, "q6286": 8293, "q6287": 8294, "q6288": 8295, "q6289": 8296, "q629": 8297, "q6290": 8298, "q6291": 8299, "q6292": 8300, "q6293": 8301, "q6294": 8302, "q6296": 8303, "q6297": 8304, "q6298": 8305, "q6299": 8306, "q63": 8307, "q630": 8308, "q6300": 8309, "q6301": 8310, "q6302": 8311, "q6303": 8312, "q6304": 8313, "q6306": 8314, "q6308": 8315, "q631": 8316, "q6310": 8317, "q6312": 8318, "q6313": 8319, "q6314": 8320, "q6315": 8321, "q6316": 8322, "q6317": 8323, "q6318": 8324, "q6319": 8325, "q632": 8326, "q6320": 8327, "q6321": 8328, "q6322": 8329, "q6323": 8330, "q6324": 8331, "q6325": 8332, "q6326": 8333, "q6327": 8334, "q6328": 8335, "q6329": 8336, "q633": 8337, "q6330": 8338, "q6331": 8339, "q6332": 8340, "q6333": 8341, "q6334": 8342, "q6335": 8343, "q6336": 8344, "q6337": 8345, "q6338": 8346, "q6339": 8347, "q634": 8348, "q6340": 8349, "q6341": 8350, "q6342": 8351, "q6343": 8352, "q6344": 8353, "q6345": 8354, "q6346": 8355, "q6347": 8356, "q6348": 8357, "q6349": 8358, "q635": 8359, "q6350": 8360, "q6351": 8361, "q6352": 8362, "q6353": 8363, "q6354": 8364, "q6355": 8365, "q6356": 8366, "q6357": 8367, "q6358": 8368, "q6359": 8369, "q636": 8370, "q6360": 8371, "q6362": 8372, "q6363": 8373, "q6364": 8374, "q6365": 8375, "q6366": 8376, "q6367": 8377, "q6368": 8378, "q6369": 8379, "q637": 8380, "q6370": 8381, "q6371": 8382, "q6372": 8383, "q6373": 8384, "q6374": 8385, "q6375": 8386, "q6376": 8387, "q6377": 8388, "q6378": 8389, "q6379": 8390, "q638": 8391, "q6380": 8392, "q6381": 8393, "q6382": 8394, "q6383": 8395, "q6384": 8396, "q6385": 8397, "q6386": 8398, "q6387": 8399, "q6388": 8400, "q6389": 8401, "q639": 8402, "q6390": 8403, "q6391": 8404, "q6392": 8405, "q6393": 8406, "q6394": 8407, "q6395": 8408, "q6396": 8409, "q6397": 8410, "q6398": 8411, "q6399": 8412, "q64": 8413, "q640": 8414, "q6400": 8415, "q6401": 8416, "q6402": 8417, "q6403": 8418, "q6404": 8419, "q6405": 8420, "q6406": 8421, "q6407": 8422, "q6408": 8423, "q6409": 8424, "q641": 8425, "q6410": 8426, "q6411": 8427, "q6412": 8428, "q6413": 8429, "q6414": 8430, "q6415": 8431, "q6416": 8432, "q6417": 8433, "q6418": 8434, "q6419": 8435, "q642": 8436, "q6421": 8437, "q6422": 8438, "q6423": 8439, "q6424": 8440, "q6425": 8441, "q6426": 8442, "q6427": 8443, "q6428": 8444, "q6429": 8445, "q643": 8446, "q6430": 8447, "q6431": 8448, "q6432": 8449, "q6433": 8450, "q6434": 8451, "q6435": 8452, "q6436": 8453, "q6437": 8454, "q6438": 8455, "q6439": 8456, "q644": 8457, "q6440": 8458, "q6441": 8459, "q6442": 8460, "q6443": 8461, "q6444": 8462, "q6445": 8463, "q6446": 8464, "q6447": 8465, "q6448": 8466, "q6449": 8467, "q645": 8468, "q6450": 8469, "q6451": 8470, "q6452": 8471, "q6453": 8472, "q6454": 8473, "q6455": 8474, "q6456": 8475, "q6457": 8476, "q6458": 8477, "q6459": 8478, "q646": 8479, "q6460": 8480, "q6461": 8481, "q6462": 8482, "q6463": 8483, "q6464": 8484, "q6465": 8485, "q6466": 8486, "q6467": 8487, "q6468": 8488, "q6469": 8489, "q647": 8490, "q6470": 8491, "q6471": 8492, "q6472": 8493, "q6473": 8494, "q6474": 8495, "q6475": 8496, "q6476": 8497, "q6477": 8498, "q6478": 8499, "q6479": 8500, "q648": 8501, "q6480": 8502, "q6481": 8503, "q6482": 8504, "q6483": 8505, "q6484": 8506, "q6485": 8507, "q6486": 8508, "q6487": 8509, "q6488": 8510, "q6489": 8511, "q649": 8512, "q6490": 8513, "q6491": 8514, "q6492": 8515, "q6493": 8516, "q6494": 8517, "q6495": 8518, "q6496": 8519, "q6497": 8520, "q6498": 8521, "q6499": 8522, "q65": 8523, "q650": 8524, "q6500": 8525, "q6501": 8526, "q6502": 8527, "q6503": 8528, "q6504": 8529, "q6505": 8530, "q6506": 8531, "q6507": 8532, "q6508": 8533, "q6509": 8534, "q651": 8535, "q6510": 8536, "q6511": 8537, "q6512": 8538, "q6513": 8539, "q6514": 8540, "q6515": 8541, "q6516": 8542, "q6517": 8543, "q6518": 8544, "q6519": 8545, "q652": 8546, "q6520": 8547, "q6521": 8548, "q6522": 8549, "q6523": 8550, "q6524": 8551, "q6525": 8552, "q6526": 8553, "q6527": 8554, "q6528": 8555, "q6529": 8556, "q653": 8557, "q6530": 8558, "q6531": 8559, "q6532": 8560, "q6533": 8561, "q6534": 8562, "q6535": 8563, "q6536": 8564, "q6537": 8565, "q6538": 8566, "q6539": 8567, "q654": 8568, "q6540": 8569, "q6541": 8570, "q6542": 8571, "q6543": 8572, "q6544": 8573, "q6545": 8574, "q6546": 8575, "q6547": 8576, "q6548": 8577, "q6549": 8578, "q655": 8579, "q6550": 8580, "q6551": 8581, "q6552": 8582, "q6553": 8583, "q6554": 8584, "q6555": 8585, "q6556": 8586, "q6557": 8587, "q6558": 8588, "q6559": 8589, "q656": 8590, "q6560": 8591, "q6561": 8592, "q6562": 8593, "q6563": 8594, "q6564": 8595, "q6565": 8596, "q6566": 8597, "q6567": 8598, "q6568": 8599, "q6569": 8600, "q657": 8601, "q6570": 8602, "q6571": 8603, "q6572": 8604, "q6573": 8605, "q6574": 8606, "q6575": 8607, "q6576": 8608, "q6577": 8609, "q6578": 8610, "q6579": 8611, "q658": 8612, "q6580": 8613, "q6581": 8614, "q6582": 8615, "q6583": 8616, "q6584": 8617, "q6585": 8618, "q6586": 8619, "q6587": 8620, "q6588": 8621, "q6589": 8622, "q659": 8623, "q6590": 8624, "q6591": 8625, "q6592": 8626, "q6593": 8627, "q6594": 8628, "q6595": 8629, "q6596": 8630, "q6597": 8631, "q6598": 8632, "q6599": 8633, "q66": 8634, "q660": 8635, "q6600": 8636, "q6601": 8637, "q6602": 8638, "q6603": 8639, "q6604": 8640, "q6605": 8641, "q6606": 8642, "q6607": 8643, "q6608": 8644, "q6609": 8645, "q661": 8646, "q6610": 8647, "q6611": 8648, "q6612": 8649, "q6613": 8650, "q6614": 8651, "q6615": 8652, "q6616": 8653, "q6617": 8654, "q6618": 8655, "q6619": 8656, "q662": 8657, "q6620": 8658, "q6621": 8659, "q6622": 8660, "q6623": 8661, "q6624": 8662, "q6625": 8663, "q6626": 8664, "q6627": 8665, "q6628": 8666, "q6629": 8667, "q663": 8668, "q6630": 8669, "q6631": 8670, "q6632": 8671, "q6633": 8672, "q6634": 8673, "q6635": 8674, "q6636": 8675, "q6637": 8676, "q6638": 8677, "q6639": 8678, "q664": 8679, "q6640": 8680, "q6641": 8681, "q6642": 8682, "q6643": 8683, "q6644": 8684, "q6645": 8685, "q6646": 8686, "q6647": 8687, "q6648": 8688, "q6649": 8689, "q665": 8690, "q6650": 8691, "q6651": 8692, "q6652": 8693, "q6653": 8694, "q6654": 8695, "q6655": 8696, "q6656": 8697, "q6657": 8698, "q6658": 8699, "q6659": 8700, "q666": 8701, "q6660": 8702, "q6661": 8703, "q6662": 8704, "q6663": 8705, "q6664": 8706, "q6665": 8707, "q6666": 8708, "q6667": 8709, "q6668": 8710, "q6669": 8711, "q667": 8712, "q6670": 8713, "q6671": 8714, "q6672": 8715, "q6673": 8716, "q6674": 8717, "q6675": 8718, "q6676": 8719, "q6677": 8720, "q6678": 8721, "q6679": 8722, "q668": 8723, "q6680": 8724, "q6681": 8725, "q6682": 8726, "q6683": 8727, "q6684": 8728, "q6685": 8729, "q6686": 8730, "q6687": 8731, "q6688": 8732, "q6689": 8733, "q669": 8734, "q6690": 8735, "q6691": 8736, "q6692": 8737, "q6693": 8738, "q6694": 8739, "q6695": 8740, "q6696": 8741, "q6697": 8742, "q6698": 8743, "q6699": 8744, "q67": 8745, "q670": 8746, "q6700": 8747, "q6701": 8748, "q6702": 8749, "q6703": 8750, "q6704": 8751, "q6705": 8752, "q6706": 8753, "q6707": 8754, "q6708": 8755, "q6709": 8756, "q671": 8757, "q6710": 8758, "q6711": 8759, "q6712": 8760, "q6713": 8761, "q6714": 8762, "q6715": 8763, "q6716": 8764, "q6717": 8765, "q6718": 8766, "q6719": 8767, "q672": 8768, "q6720": 8769, "q6721": 8770, "q6722": 8771, "q6723": 8772, "q6724": 8773, "q6725": 8774, "q6726": 8775, "q6727": 8776, "q6728": 8777, "q6729": 8778, "q673": 8779, "q6730": 8780, "q6731": 8781, "q6732": 8782, "q6733": 8783, "q6734": 8784, "q6735": 8785, "q6736": 8786, "q6737": 8787, "q6738": 8788, "q6739": 8789, "q674": 8790, "q6740": 8791, "q6741": 8792, "q6742": 8793, "q6743": 8794, "q6744": 8795, "q6745": 8796, "q6746": 8797, "q6747": 8798, "q6748": 8799, "q6749": 8800, "q6750": 8801, "q6751": 8802, "q6752": 8803, "q6753": 8804, "q6754": 8805, "q6755": 8806, "q6756": 8807, "q6757": 8808, "q6758": 8809, "q6759": 8810, "q676": 8811, "q6760": 8812, "q6761": 8813, "q6762": 8814, "q6763": 8815, "q6764": 8816, "q6765": 8817, "q6766": 8818, "q6767": 8819, "q6768": 8820, "q6769": 8821, "q677": 8822, "q6770": 8823, "q6771": 8824, "q6772": 8825, "q6773": 8826, "q6774": 8827, "q6775": 8828, "q6776": 8829, "q6777": 8830, "q6778": 8831, "q6779": 8832, "q678": 8833, "q6780": 8834, "q6781": 8835, "q6782": 8836, "q6783": 8837, "q6784": 8838, "q6785": 8839, "q6786": 8840, "q6787": 8841, "q6788": 8842, "q6789": 8843, "q679": 8844, "q6790": 8845, "q6791": 8846, "q6792": 8847, "q6793": 8848, "q6794": 8849, "q6795": 8850, "q6796": 8851, "q6797": 8852, "q6798": 8853, "q6799": 8854, "q68": 8855, "q680": 8856, "q6800": 8857, "q6801": 8858, "q6802": 8859, "q6803": 8860, "q6804": 8861, "q6805": 8862, "q6806": 8863, "q6807": 8864, "q6808": 8865, "q6809": 8866, "q681": 8867, "q6810": 8868, "q6811": 8869, "q6812": 8870, "q6813": 8871, "q6814": 8872, "q6815": 8873, "q6816": 8874, "q6817": 8875, "q6818": 8876, "q6819": 8877, "q682": 8878, "q6820": 8879, "q6821": 8880, "q6822": 8881, "q6823": 8882, "q6824": 8883, "q6825": 8884, "q6826": 8885, "q6827": 8886, "q6828": 8887, "q6829": 8888, "q683": 8889, "q6830": 8890, "q6831": 8891, "q6832": 8892, "q6833": 8893, "q6834": 8894, "q6835": 8895, "q6836": 8896, "q6837": 8897, "q6838": 8898, "q6839": 8899, "q684": 8900, "q6840": 8901, "q6841": 8902, "q6842": 8903, "q6843": 8904, "q6844": 8905, "q6845": 8906, "q6846": 8907, "q6847": 8908, "q6848": 8909, "q6849": 8910, "q685": 8911, "q6850": 8912, "q6851": 8913, "q6852": 8914, "q6853": 8915, "q6854": 8916, "q6855": 8917, "q6856": 8918, "q6857": 8919, "q6858": 8920, "q6859": 8921, "q686": 8922, "q6860": 8923, "q6861": 8924, "q6862": 8925, "q6863": 8926, "q6864": 8927, "q6865": 8928, "q6866": 8929, "q6867": 8930, "q6868": 8931, "q6869": 8932, "q687": 8933, "q6870": 8934, "q6871": 8935, "q6872": 8936, "q6873": 8937, "q6874": 8938, "q6875": 8939, "q6876": 8940, "q6877": 8941, "q6878": 8942, "q6879": 8943, "q688": 8944, "q6880": 8945, "q6881": 8946, "q6882": 8947, "q6883": 8948, "q6884": 8949, "q6885": 8950, "q6886": 8951, "q6887": 8952, "q6888": 8953, "q6889": 8954, "q689": 8955, "q6890": 8956, "q6891": 8957, "q6892": 8958, "q6893": 8959, "q6894": 8960, "q6895": 8961, "q6896": 8962, "q6897": 8963, "q6898": 8964, "q6899": 8965, "q69": 8966, "q690": 8967, "q6900": 8968, "q6901": 8969, "q6902": 8970, "q6903": 8971, "q6904": 8972, "q6905": 8973, "q6906": 8974, "q6907": 8975, "q6908": 8976, "q6909": 8977, "q691": 8978, "q6910": 8979, "q6911": 8980, "q6912": 8981, "q6913": 8982, "q6914": 8983, "q6915": 8984, "q6916": 8985, "q6917": 8986, "q6918": 8987, "q6919": 8988, "q692": 8989, "q6920": 8990, "q6921": 8991, "q6922": 8992, "q6923": 8993, "q6924": 8994, "q6925": 8995, "q6926": 8996, "q6927": 8997, "q6928": 8998, "q6929": 8999, "q693": 9000, "q6930": 9001, "q6931": 9002, "q6932": 9003, "q6933": 9004, "q6934": 9005, "q6935": 9006, "q6936": 9007, "q6937": 9008, "q6938": 9009, "q6939": 9010, "q694": 9011, "q6940": 9012, "q6941": 9013, "q6942": 9014, "q6943": 9015, "q6944": 9016, "q6945": 9017, "q6946": 9018, "q6947": 9019, "q6948": 9020, "q6949": 9021, "q695": 9022, "q6950": 9023, "q6951": 9024, "q6952": 9025, "q6953": 9026, "q6954": 9027, "q6955": 9028, "q6956": 9029, "q6957": 9030, "q6958": 9031, "q6959": 9032, "q696": 9033, "q6960": 9034, "q6961": 9035, "q6962": 9036, "q6963": 9037, "q6964": 9038, "q6965": 9039, "q6966": 9040, "q6967": 9041, "q6968": 9042, "q6969": 9043, "q6970": 9044, "q6971": 9045, "q6972": 9046, "q6973": 9047, "q6974": 9048, "q6975": 9049, "q6976": 9050, "q6977": 9051, "q6978": 9052, "q6979": 9053, "q698": 9054, "q6980": 9055, "q6981": 9056, "q6982": 9057, "q6983": 9058, "q6984": 9059, "q6985": 9060, "q6986": 9061, "q6987": 9062, "q6988": 9063, "q6989": 9064, "q699": 9065, "q6990": 9066, "q6991": 9067, "q6992": 9068, "q6993": 9069, "q6994": 9070, "q6995": 9071, "q6996": 9072, "q6997": 9073, "q6998": 9074, "q6999": 9075, "q7": 9076, "q70": 9077, "q700": 9078, "q7000": 9079, "q7001": 9080, "q7002": 9081, "q7003": 9082, "q7004": 9083, "q7005": 9084, "q7006": 9085, "q7007": 9086, "q7008": 9087, "q7009": 9088, "q701": 9089, "q7010": 9090, "q7011": 9091, "q7012": 9092, "q7013": 9093, "q7014": 9094, "q7015": 9095, "q7016": 9096, "q7017": 9097, "q7018": 9098, "q7019": 9099, "q702": 9100, "q7020": 9101, "q7021": 9102, "q7022": 9103, "q7023": 9104, "q7024": 9105, "q7025": 9106, "q7026": 9107, "q7027": 9108, "q7028": 9109, "q7029": 9110, "q703": 9111, "q7030": 9112, "q7031": 9113, "q7032": 9114, "q7033": 9115, "q7034": 9116, "q7035": 9117, "q7036": 9118, "q7037": 9119, "q7038": 9120, "q7039": 9121, "q704": 9122, "q7040": 9123, "q7041": 9124, "q7042": 9125, "q7043": 9126, "q7044": 9127, "q7045": 9128, "q7046": 9129, "q7047": 9130, "q7048": 9131, "q7049": 9132, "q705": 9133, "q7050": 9134, "q7051": 9135, "q7052": 9136, "q7053": 9137, "q7054": 9138, "q7055": 9139, "q7056": 9140, "q7057": 9141, "q7058": 9142, "q7059": 9143, "q706": 9144, "q7060": 9145, "q7061": 9146, "q7062": 9147, "q7063": 9148, "q7064": 9149, "q7065": 9150, "q7066": 9151, "q7067": 9152, "q7068": 9153, "q7069": 9154, "q707": 9155, "q7070": 9156, "q7071": 9157, "q7072": 9158, "q7073": 9159, "q7074": 9160, "q7075": 9161, "q7076": 9162, "q7077": 9163, "q7078": 9164, "q7079": 9165, "q708": 9166, "q7080": 9167, "q7081": 9168, "q7082": 9169, "q7083": 9170, "q7084": 9171, "q7085": 9172, "q7086": 9173, "q7087": 9174, "q7088": 9175, "q7089": 9176, "q709": 9177, "q7090": 9178, "q7091": 9179, "q7092": 9180, "q7093": 9181, "q7094": 9182, "q7095": 9183, "q7096": 9184, "q7097": 9185, "q7098": 9186, "q7099": 9187, "q71": 9188, "q710": 9189, "q7100": 9190, "q7101": 9191, "q7102": 9192, "q7103": 9193, "q7104": 9194, "q7105": 9195, "q7106": 9196, "q7107": 9197, "q7108": 9198, "q7109": 9199, "q711": 9200, "q7110": 9201, "q7111": 9202, "q7112": 9203, "q7113": 9204, "q7114": 9205, "q7115": 9206, "q7116": 9207, "q7117": 9208, "q7118": 9209, "q7119": 9210, "q712": 9211, "q7120": 9212, "q7121": 9213, "q7122": 9214, "q7123": 9215, "q7124": 9216, "q7125": 9217, "q7126": 9218, "q7127": 9219, "q7128": 9220, "q7129": 9221, "q713": 9222, "q7130": 9223, "q714": 9224, "q715": 9225, "q716": 9226, "q7160": 9227, "q7161": 9228, "q7162": 9229, "q7163": 9230, "q7164": 9231, "q7165": 9232, "q7166": 9233, "q7167": 9234, "q7168": 9235, "q7169": 9236, "q717": 9237, "q7170": 9238, "q7171": 9239, "q7172": 9240, "q7173": 9241, "q7174": 9242, "q7175": 9243, "q7176": 9244, "q7177": 9245, "q7178": 9246, "q7179": 9247, "q718": 9248, "q7180": 9249, "q7181": 9250, "q7182": 9251, "q7183": 9252, "q7184": 9253, "q7185": 9254, "q7186": 9255, "q7187": 9256, "q7188": 9257, "q7189": 9258, "q719": 9259, "q7190": 9260, "q7191": 9261, "q7192": 9262, "q7193": 9263, "q7194": 9264, "q7195": 9265, "q7196": 9266, "q7197": 9267, "q7198": 9268, "q7199": 9269, "q72": 9270, "q720": 9271, "q7200": 9272, "q7201": 9273, "q7202": 9274, "q7203": 9275, "q7204": 9276, "q7205": 9277, "q7206": 9278, "q7207": 9279, "q7208": 9280, "q7209": 9281, "q721": 9282, "q7210": 9283, "q7211": 9284, "q7212": 9285, "q7213": 9286, "q7214": 9287, "q7215": 9288, "q7216": 9289, "q7217": 9290, "q7218": 9291, "q7219": 9292, "q722": 9293, "q7220": 9294, "q7221": 9295, "q7222": 9296, "q7223": 9297, "q7224": 9298, "q7225": 9299, "q7226": 9300, "q7227": 9301, "q7228": 9302, "q7229": 9303, "q723": 9304, "q7230": 9305, "q7231": 9306, "q7232": 9307, "q7233": 9308, "q7234": 9309, "q7235": 9310, "q7236": 9311, "q7237": 9312, "q7238": 9313, "q724": 9314, "q7242": 9315, "q7243": 9316, "q7244": 9317, "q7245": 9318, "q7246": 9319, "q7247": 9320, "q7248": 9321, "q7249": 9322, "q725": 9323, "q7250": 9324, "q7251": 9325, "q7252": 9326, "q7253": 9327, "q7254": 9328, "q7255": 9329, "q7256": 9330, "q7257": 9331, "q7258": 9332, "q7259": 9333, "q726": 9334, "q7260": 9335, "q7261": 9336, "q727": 9337, "q7277": 9338, "q7278": 9339, "q7279": 9340, "q728": 9341, "q7280": 9342, "q7281": 9343, "q7282": 9344, "q7283": 9345, "q7284": 9346, "q7285": 9347, "q7286": 9348, "q7287": 9349, "q7288": 9350, "q7289": 9351, "q729": 9352, "q7290": 9353, "q7291": 9354, "q7292": 9355, "q7293": 9356, "q7294": 9357, "q7295": 9358, "q7296": 9359, "q7297": 9360, "q7298": 9361, "q7299": 9362, "q73": 9363, "q730": 9364, "q7300": 9365, "q7301": 9366, "q7302": 9367, "q7303": 9368, "q7304": 9369, "q7305": 9370, "q7306": 9371, "q7307": 9372, "q7308": 9373, "q7309": 9374, "q731": 9375, "q7310": 9376, "q7311": 9377, "q7312": 9378, "q7313": 9379, "q7319": 9380, "q732": 9381, "q7320": 9382, "q7321": 9383, "q7322": 9384, "q7323": 9385, "q7324": 9386, "q7325": 9387, "q7326": 9388, "q7327": 9389, "q7328": 9390, "q7329": 9391, "q733": 9392, "q7330": 9393, "q7331": 9394, "q7332": 9395, "q7333": 9396, "q7334": 9397, "q7335": 9398, "q7336": 9399, "q7337": 9400, "q7338": 9401, "q7339": 9402, "q734": 9403, "q7340": 9404, "q7341": 9405, "q7342": 9406, "q7343": 9407, "q7344": 9408, "q7345": 9409, "q7346": 9410, "q7347": 9411, "q7348": 9412, "q7349": 9413, "q735": 9414, "q7350": 9415, "q7351": 9416, "q7352": 9417, "q7353": 9418, "q7354": 9419, "q7355": 9420, "q7356": 9421, "q7357": 9422, "q7358": 9423, "q7359": 9424, "q736": 9425, "q7360": 9426, "q7361": 9427, "q7362": 9428, "q7363": 9429, "q7364": 9430, "q7365": 9431, "q7366": 9432, "q7367": 9433, "q7368": 9434, "q7369": 9435, "q737": 9436, "q7370": 9437, "q7371": 9438, "q7372": 9439, "q7373": 9440, "q7374": 9441, "q7375": 9442, "q7376": 9443, "q7377": 9444, "q7378": 9445, "q7379": 9446, "q738": 9447, "q7380": 9448, "q7381": 9449, "q7382": 9450, "q7383": 9451, "q7384": 9452, "q7385": 9453, "q7386": 9454, "q7387": 9455, "q7388": 9456, "q7389": 9457, "q739": 9458, "q7390": 9459, "q7391": 9460, "q7392": 9461, "q7393": 9462, "q7394": 9463, "q7395": 9464, "q7396": 9465, "q7397": 9466, "q7398": 9467, "q7399": 9468, "q74": 9469, "q740": 9470, "q7400": 9471, "q7401": 9472, "q7402": 9473, "q7403": 9474, "q7404": 9475, "q7405": 9476, "q7406": 9477, "q7407": 9478, "q7408": 9479, "q7409": 9480, "q741": 9481, "q7410": 9482, "q7411": 9483, "q7412": 9484, "q7413": 9485, "q7414": 9486, "q7415": 9487, "q7416": 9488, "q7417": 9489, "q7418": 9490, "q7419": 9491, "q742": 9492, "q7420": 9493, "q7421": 9494, "q7422": 9495, "q7423": 9496, "q7424": 9497, "q7425": 9498, "q7426": 9499, "q7427": 9500, "q7428": 9501, "q7429": 9502, "q743": 9503, "q7430": 9504, "q7431": 9505, "q7432": 9506, "q7433": 9507, "q7434": 9508, "q7435": 9509, "q7436": 9510, "q7437": 9511, "q7438": 9512, "q7439": 9513, "q744": 9514, "q7440": 9515, "q7441": 9516, "q7442": 9517, "q7443": 9518, "q7444": 9519, "q7445": 9520, "q7446": 9521, "q7447": 9522, "q7448": 9523, "q7449": 9524, "q745": 9525, "q7450": 9526, "q7451": 9527, "q7452": 9528, "q7453": 9529, "q7454": 9530, "q7455": 9531, "q7456": 9532, "q7457": 9533, "q7458": 9534, "q7459": 9535, "q746": 9536, "q7460": 9537, "q7461": 9538, "q7462": 9539, "q7463": 9540, "q7464": 9541, "q7465": 9542, "q7466": 9543, "q7467": 9544, "q7468": 9545, "q7469": 9546, "q747": 9547, "q7470": 9548, "q7473": 9549, "q7474": 9550, "q7475": 9551, "q7476": 9552, "q7477": 9553, "q7478": 9554, "q7479": 9555, "q748": 9556, "q7485": 9557, "q7486": 9558, "q7487": 9559, "q7488": 9560, "q7489": 9561, "q749": 9562, "q75": 9563, "q750": 9564, "q7500": 9565, "q7501": 9566, "q7502": 9567, "q7503": 9568, "q7504": 9569, "q7505": 9570, "q7506": 9571, "q7507": 9572, "q7508": 9573, "q7509": 9574, "q751": 9575, "q7510": 9576, "q7511": 9577, "q7512": 9578, "q7513": 9579, "q7514": 9580, "q7515": 9581, "q7516": 9582, "q7517": 9583, "q7518": 9584, "q7519": 9585, "q752": 9586, "q7520": 9587, "q7521": 9588, "q7522": 9589, "q7523": 9590, "q7524": 9591, "q7525": 9592, "q7526": 9593, "q7527": 9594, "q7528": 9595, "q7529": 9596, "q753": 9597, "q7530": 9598, "q7531": 9599, "q7532": 9600, "q7533": 9601, "q7534": 9602, "q7535": 9603, "q7536": 9604, "q7537": 9605, "q7538": 9606, "q7539": 9607, "q754": 9608, "q7540": 9609, "q7541": 9610, "q7542": 9611, "q7543": 9612, "q7544": 9613, "q7545": 9614, "q7546": 9615, "q7547": 9616, "q7548": 9617, "q7549": 9618, "q755": 9619, "q7550": 9620, "q7551": 9621, "q7552": 9622, "q7553": 9623, "q7554": 9624, "q7555": 9625, "q7556": 9626, "q7557": 9627, "q7558": 9628, "q7559": 9629, "q756": 9630, "q7560": 9631, "q7561": 9632, "q7562": 9633, "q7563": 9634, "q7564": 9635, "q7565": 9636, "q7566": 9637, "q7567": 9638, "q7568": 9639, "q7569": 9640, "q757": 9641, "q7570": 9642, "q7571": 9643, "q7572": 9644, "q7573": 9645, "q7574": 9646, "q7575": 9647, "q7576": 9648, "q7577": 9649, "q7578": 9650, "q7579": 9651, "q758": 9652, "q7580": 9653, "q7581": 9654, "q7582": 9655, "q7583": 9656, "q7584": 9657, "q7585": 9658, "q7586": 9659, "q7587": 9660, "q7588": 9661, "q7589": 9662, "q759": 9663, "q7590": 9664, "q7595": 9665, "q7596": 9666, "q7597": 9667, "q7598": 9668, "q7599": 9669, "q76": 9670, "q760": 9671, "q7600": 9672, "q7601": 9673, "q7602": 9674, "q7603": 9675, "q7604": 9676, "q7605": 9677, "q7606": 9678, "q7607": 9679, "q7608": 9680, "q7609": 9681, "q761": 9682, "q7610": 9683, "q7611": 9684, "q7612": 9685, "q7613": 9686, "q7614": 9687, "q7615": 9688, "q7616": 9689, "q7617": 9690, "q7618": 9691, "q7619": 9692, "q762": 9693, "q7620": 9694, "q7621": 9695, "q7622": 9696, "q7623": 9697, "q7624": 9698, "q7625": 9699, "q7626": 9700, "q7627": 9701, "q7628": 9702, "q7629": 9703, "q763": 9704, "q7630": 9705, "q7631": 9706, "q7632": 9707, "q7633": 9708, "q7634": 9709, "q7635": 9710, "q7636": 9711, "q7637": 9712, "q7638": 9713, "q7639": 9714, "q764": 9715, "q7640": 9716, "q7641": 9717, "q7642": 9718, "q7643": 9719, "q7644": 9720, "q7645": 9721, "q7646": 9722, "q7647": 9723, "q7648": 9724, "q7649": 9725, "q765": 9726, "q7650": 9727, "q7651": 9728, "q7652": 9729, "q7653": 9730, "q7654": 9731, "q7655": 9732, "q7656": 9733, "q7657": 9734, "q7658": 9735, "q7659": 9736, "q766": 9737, "q7663": 9738, "q7664": 9739, "q7665": 9740, "q7666": 9741, "q7667": 9742, "q7668": 9743, "q7669": 9744, "q767": 9745, "q7673": 9746, "q7674": 9747, "q7675": 9748, "q7676": 9749, "q7677": 9750, "q7678": 9751, "q7679": 9752, "q768": 9753, "q7680": 9754, "q7681": 9755, "q7682": 9756, "q7683": 9757, "q7684": 9758, "q7685": 9759, "q7686": 9760, "q7687": 9761, "q7688": 9762, "q7689": 9763, "q769": 9764, "q7690": 9765, "q7691": 9766, "q7692": 9767, "q7693": 9768, "q7694": 9769, "q7695": 9770, "q7696": 9771, "q7697": 9772, "q7698": 9773, "q7699": 9774, "q77": 9775, "q770": 9776, "q7700": 9777, "q7701": 9778, "q7702": 9779, "q7703": 9780, "q7704": 9781, "q7705": 9782, "q7706": 9783, "q7707": 9784, "q7708": 9785, "q7709": 9786, "q771": 9787, "q7710": 9788, "q7711": 9789, "q7712": 9790, "q7713": 9791, "q7714": 9792, "q7715": 9793, "q7716": 9794, "q7717": 9795, "q7718": 9796, "q7719": 9797, "q772": 9798, "q7720": 9799, "q7721": 9800, "q7722": 9801, "q7723": 9802, "q7724": 9803, "q7725": 9804, "q7726": 9805, "q7727": 9806, "q7728": 9807, "q7729": 9808, "q773": 9809, "q7730": 9810, "q7731": 9811, "q7732": 9812, "q7733": 9813, "q7734": 9814, "q7735": 9815, "q7736": 9816, "q7737": 9817, "q7738": 9818, "q7739": 9819, "q774": 9820, "q7740": 9821, "q7741": 9822, "q7742": 9823, "q7743": 9824, "q7744": 9825, "q7745": 9826, "q7746": 9827, "q7747": 9828, "q7748": 9829, "q7749": 9830, "q775": 9831, "q7750": 9832, "q776": 9833, "q7761": 9834, "q7762": 9835, "q7763": 9836, "q7764": 9837, "q7765": 9838, "q7766": 9839, "q7767": 9840, "q7768": 9841, "q7769": 9842, "q777": 9843, "q7770": 9844, "q7771": 9845, "q7772": 9846, "q7773": 9847, "q7774": 9848, "q7775": 9849, "q7776": 9850, "q7777": 9851, "q7778": 9852, "q7779": 9853, "q778": 9854, "q7780": 9855, "q7781": 9856, "q7782": 9857, "q7783": 9858, "q7784": 9859, "q7785": 9860, "q7786": 9861, "q7787": 9862, "q7788": 9863, "q7789": 9864, "q7790": 9865, "q78": 9866, "q780": 9867, "q7801": 9868, "q7802": 9869, "q7803": 9870, "q7804": 9871, "q7805": 9872, "q7806": 9873, "q7807": 9874, "q7808": 9875, "q7809": 9876, "q781": 9877, "q7810": 9878, "q7811": 9879, "q7812": 9880, "q7813": 9881, "q7814": 9882, "q7815": 9883, "q7816": 9884, "q7817": 9885, "q7818": 9886, "q7819": 9887, "q782": 9888, "q7820": 9889, "q7821": 9890, "q7822": 9891, "q7823": 9892, "q7824": 9893, "q7825": 9894, "q7826": 9895, "q7827": 9896, "q7828": 9897, "q7829": 9898, "q783": 9899, "q7830": 9900, "q7831": 9901, "q7832": 9902, "q7833": 9903, "q7834": 9904, "q7835": 9905, "q7836": 9906, "q7837": 9907, "q7838": 9908, "q7839": 9909, "q784": 9910, "q7840": 9911, "q7841": 9912, "q7842": 9913, "q7843": 9914, "q7844": 9915, "q7845": 9916, "q7846": 9917, "q7847": 9918, "q7848": 9919, "q7849": 9920, "q785": 9921, "q7850": 9922, "q7851": 9923, "q7852": 9924, "q7853": 9925, "q7854": 9926, "q7855": 9927, "q7856": 9928, "q7857": 9929, "q7858": 9930, "q7859": 9931, "q786": 9932, "q7860": 9933, "q7861": 9934, "q7862": 9935, "q7863": 9936, "q7864": 9937, "q7865": 9938, "q7866": 9939, "q7867": 9940, "q7868": 9941, "q7869": 9942, "q787": 9943, "q7870": 9944, "q7871": 9945, "q7872": 9946, "q7873": 9947, "q7874": 9948, "q7875": 9949, "q7876": 9950, "q7877": 9951, "q7878": 9952, "q7879": 9953, "q788": 9954, "q7880": 9955, "q7881": 9956, "q7882": 9957, "q7883": 9958, "q7884": 9959, "q7885": 9960, "q7886": 9961, "q7887": 9962, "q7888": 9963, "q7889": 9964, "q789": 9965, "q7890": 9966, "q7891": 9967, "q7892": 9968, "q7893": 9969, "q7894": 9970, "q7895": 9971, "q79": 9972, "q790": 9973, "q791": 9974, "q792": 9975, "q793": 9976, "q794": 9977, "q795": 9978, "q7954": 9979, "q7955": 9980, "q7956": 9981, "q7957": 9982, "q7958": 9983, "q7959": 9984, "q796": 9985, "q7960": 9986, "q7961": 9987, "q7962": 9988, "q7963": 9989, "q7964": 9990, "q7965": 9991, "q7966": 9992, "q7967": 9993, "q7968": 9994, "q7969": 9995, "q797": 9996, "q7970": 9997, "q7971": 9998, "q7972": 9999, "q7973": 10000, "q7974": 10001, "q7975": 10002, "q7976": 10003, "q7977": 10004, "q7978": 10005, "q7979": 10006, "q798": 10007, "q7980": 10008, "q7981": 10009, "q7982": 10010, "q7983": 10011, "q7984": 10012, "q7985": 10013, "q7986": 10014, "q7987": 10015, "q7988": 10016, "q7989": 10017, "q799": 10018, "q7990": 10019, "q7991": 10020, "q7992": 10021, "q7993": 10022, "q7994": 10023, "q7995": 10024, "q7996": 10025, "q7997": 10026, "q7998": 10027, "q7999": 10028, "q8": 10029, "q80": 10030, "q800": 10031, "q8000": 10032, "q8001": 10033, "q8002": 10034, "q8003": 10035, "q8004": 10036, "q8005": 10037, "q8006": 10038, "q8007": 10039, "q8008": 10040, "q8009": 10041, "q801": 10042, "q8010": 10043, "q8011": 10044, "q8012": 10045, "q8013": 10046, "q8014": 10047, "q8015": 10048, "q8016": 10049, "q8017": 10050, "q8018": 10051, "q8019": 10052, "q802": 10053, "q8020": 10054, "q8021": 10055, "q8022": 10056, "q8023": 10057, "q8024": 10058, "q8025": 10059, "q8026": 10060, "q8027": 10061, "q8028": 10062, "q8029": 10063, "q803": 10064, "q8030": 10065, "q8031": 10066, "q8032": 10067, "q8033": 10068, "q8034": 10069, "q8035": 10070, "q8036": 10071, "q8037": 10072, "q8038": 10073, "q8039": 10074, "q8040": 10075, "q8041": 10076, "q8042": 10077, "q8043": 10078, "q8044": 10079, "q8045": 10080, "q8049": 10081, "q805": 10082, "q8050": 10083, "q8051": 10084, "q8052": 10085, "q8053": 10086, "q8054": 10087, "q8055": 10088, "q8056": 10089, "q8057": 10090, "q8058": 10091, "q8059": 10092, "q806": 10093, "q8060": 10094, "q8061": 10095, "q8062": 10096, "q8063": 10097, "q8064": 10098, "q8065": 10099, "q8066": 10100, "q8067": 10101, "q8068": 10102, "q8069": 10103, "q807": 10104, "q8070": 10105, "q8071": 10106, "q8072": 10107, "q8073": 10108, "q8074": 10109, "q8075": 10110, "q8076": 10111, "q8077": 10112, "q8078": 10113, "q8079": 10114, "q808": 10115, "q8080": 10116, "q8081": 10117, "q8082": 10118, "q8083": 10119, "q8084": 10120, "q8085": 10121, "q8086": 10122, "q8087": 10123, "q8088": 10124, "q8089": 10125, "q809": 10126, "q8090": 10127, "q8091": 10128, "q8092": 10129, "q8093": 10130, "q8094": 10131, "q8095": 10132, "q8096": 10133, "q8097": 10134, "q8098": 10135, "q8099": 10136, "q81": 10137, "q810": 10138, "q8100": 10139, "q8101": 10140, "q8102": 10141, "q8103": 10142, "q8104": 10143, "q8105": 10144, "q8106": 10145, "q8107": 10146, "q8108": 10147, "q8109": 10148, "q811": 10149, "q8110": 10150, "q8111": 10151, "q8112": 10152, "q8113": 10153, "q8114": 10154, "q8115": 10155, "q8116": 10156, "q8117": 10157, "q8118": 10158, "q8119": 10159, "q812": 10160, "q8120": 10161, "q8121": 10162, "q8122": 10163, "q8123": 10164, "q8124": 10165, "q8125": 10166, "q8126": 10167, "q8127": 10168, "q8128": 10169, "q8129": 10170, "q813": 10171, "q8130": 10172, "q8131": 10173, "q8132": 10174, "q8133": 10175, "q8134": 10176, "q8135": 10177, "q8136": 10178, "q8137": 10179, "q8138": 10180, "q8139": 10181, "q814": 10182, "q8140": 10183, "q8141": 10184, "q8142": 10185, "q8143": 10186, "q8144": 10187, "q8145": 10188, "q8146": 10189, "q8147": 10190, "q8148": 10191, "q8149": 10192, "q815": 10193, "q8150": 10194, "q8151": 10195, "q8152": 10196, "q8153": 10197, "q8154": 10198, "q8155": 10199, "q8156": 10200, "q8157": 10201, "q8158": 10202, "q8159": 10203, "q816": 10204, "q8160": 10205, "q8161": 10206, "q8162": 10207, "q8163": 10208, "q8164": 10209, "q8165": 10210, "q8166": 10211, "q8167": 10212, "q8168": 10213, "q8169": 10214, "q817": 10215, "q8170": 10216, "q8171": 10217, "q8172": 10218, "q8173": 10219, "q8174": 10220, "q8175": 10221, "q8176": 10222, "q8177": 10223, "q8178": 10224, "q8179": 10225, "q818": 10226, "q8180": 10227, "q8181": 10228, "q8182": 10229, "q8183": 10230, "q8184": 10231, "q8185": 10232, "q8186": 10233, "q8187": 10234, "q8188": 10235, "q8189": 10236, "q819": 10237, "q8190": 10238, "q8191": 10239, "q8192": 10240, "q8193": 10241, "q8194": 10242, "q8195": 10243, "q8196": 10244, "q8197": 10245, "q8198": 10246, "q8199": 10247, "q82": 10248, "q820": 10249, "q8200": 10250, "q8201": 10251, "q8202": 10252, "q8203": 10253, "q8204": 10254, "q8205": 10255, "q8206": 10256, "q8207": 10257, "q8208": 10258, "q8209": 10259, "q8210": 10260, "q8211": 10261, "q8212": 10262, "q8213": 10263, "q8214": 10264, "q8215": 10265, "q8216": 10266, "q8217": 10267, "q8218": 10268, "q8219": 10269, "q822": 10270, "q8220": 10271, "q8221": 10272, "q8222": 10273, "q8223": 10274, "q8224": 10275, "q8225": 10276, "q8226": 10277, "q8227": 10278, "q8228": 10279, "q8229": 10280, "q823": 10281, "q8230": 10282, "q8231": 10283, "q8232": 10284, "q8233": 10285, "q8234": 10286, "q8235": 10287, "q8236": 10288, "q8237": 10289, "q8238": 10290, "q8239": 10291, "q824": 10292, "q8240": 10293, "q8241": 10294, "q8242": 10295, "q8243": 10296, "q8244": 10297, "q8245": 10298, "q8246": 10299, "q825": 10300, "q8252": 10301, "q8253": 10302, "q8254": 10303, "q8255": 10304, "q8256": 10305, "q8257": 10306, "q8258": 10307, "q8259": 10308, "q826": 10309, "q8260": 10310, "q8261": 10311, "q8262": 10312, "q8263": 10313, "q8264": 10314, "q8265": 10315, "q8266": 10316, "q8267": 10317, "q8268": 10318, "q8269": 10319, "q827": 10320, "q8270": 10321, "q8271": 10322, "q8272": 10323, "q8273": 10324, "q8274": 10325, "q8275": 10326, "q8276": 10327, "q8277": 10328, "q8278": 10329, "q8279": 10330, "q828": 10331, "q8280": 10332, "q8281": 10333, "q8282": 10334, "q8283": 10335, "q8284": 10336, "q8285": 10337, "q8286": 10338, "q8287": 10339, "q8288": 10340, "q8289": 10341, "q829": 10342, "q8290": 10343, "q8291": 10344, "q8297": 10345, "q8298": 10346, "q8299": 10347, "q83": 10348, "q830": 10349, "q8300": 10350, "q8301": 10351, "q831": 10352, "q8317": 10353, "q8318": 10354, "q8319": 10355, "q832": 10356, "q8320": 10357, "q8321": 10358, "q8322": 10359, "q8323": 10360, "q8324": 10361, "q8325": 10362, "q8326": 10363, "q8327": 10364, "q8328": 10365, "q833": 10366, "q8330": 10367, "q8332": 10368, "q8333": 10369, "q8334": 10370, "q8335": 10371, "q8336": 10372, "q8337": 10373, "q8338": 10374, "q8339": 10375, "q834": 10376, "q8340": 10377, "q8341": 10378, "q8342": 10379, "q8343": 10380, "q8344": 10381, "q8345": 10382, "q8346": 10383, "q8347": 10384, "q8348": 10385, "q8349": 10386, "q835": 10387, "q8350": 10388, "q8351": 10389, "q8352": 10390, "q8353": 10391, "q8354": 10392, "q8355": 10393, "q8356": 10394, "q8357": 10395, "q8358": 10396, "q8359": 10397, "q836": 10398, "q8360": 10399, "q8361": 10400, "q8362": 10401, "q8363": 10402, "q8364": 10403, "q8365": 10404, "q8366": 10405, "q8367": 10406, "q8368": 10407, "q8369": 10408, "q837": 10409, "q8370": 10410, "q8371": 10411, "q8372": 10412, "q8373": 10413, "q8374": 10414, "q8375": 10415, "q8376": 10416, "q8377": 10417, "q8378": 10418, "q8379": 10419, "q838": 10420, "q8380": 10421, "q8381": 10422, "q8382": 10423, "q8383": 10424, "q8384": 10425, "q8385": 10426, "q8386": 10427, "q8387": 10428, "q8388": 10429, "q8389": 10430, "q839": 10431, "q8390": 10432, "q8391": 10433, "q8392": 10434, "q8393": 10435, "q8394": 10436, "q8395": 10437, "q8396": 10438, "q8397": 10439, "q8398": 10440, "q8399": 10441, "q84": 10442, "q840": 10443, "q8400": 10444, "q8401": 10445, "q8403": 10446, "q8404": 10447, "q8405": 10448, "q8406": 10449, "q8407": 10450, "q8408": 10451, "q8409": 10452, "q841": 10453, "q8410": 10454, "q8411": 10455, "q8412": 10456, "q8413": 10457, "q8414": 10458, "q8415": 10459, "q8416": 10460, "q8417": 10461, "q8418": 10462, "q8419": 10463, "q842": 10464, "q8420": 10465, "q8421": 10466, "q8422": 10467, "q8423": 10468, "q8424": 10469, "q8425": 10470, "q8426": 10471, "q8427": 10472, "q8428": 10473, "q8429": 10474, "q843": 10475, "q8430": 10476, "q8431": 10477, "q8432": 10478, "q8433": 10479, "q8434": 10480, "q8435": 10481, "q8436": 10482, "q8437": 10483, "q8438": 10484, "q8439": 10485, "q844": 10486, "q8440": 10487, "q8441": 10488, "q8442": 10489, "q8443": 10490, "q8444": 10491, "q8445": 10492, "q8446": 10493, "q8447": 10494, "q8448": 10495, "q8449": 10496, "q845": 10497, "q8450": 10498, "q8451": 10499, "q8452": 10500, "q8453": 10501, "q8454": 10502, "q8455": 10503, "q8456": 10504, "q8457": 10505, "q8458": 10506, "q8459": 10507, "q846": 10508, "q8460": 10509, "q8461": 10510, "q8462": 10511, "q8463": 10512, "q8464": 10513, "q8465": 10514, "q8466": 10515, "q8467": 10516, "q8468": 10517, "q8469": 10518, "q847": 10519, "q8470": 10520, "q8471": 10521, "q8472": 10522, "q8473": 10523, "q8474": 10524, "q8475": 10525, "q8476": 10526, "q8477": 10527, "q8478": 10528, "q8479": 10529, "q848": 10530, "q8480": 10531, "q8481": 10532, "q8482": 10533, "q8483": 10534, "q8484": 10535, "q8485": 10536, "q8486": 10537, "q8487": 10538, "q8488": 10539, "q8489": 10540, "q849": 10541, "q8490": 10542, "q8491": 10543, "q8492": 10544, "q8493": 10545, "q8494": 10546, "q8495": 10547, "q8496": 10548, "q8497": 10549, "q8498": 10550, "q8499": 10551, "q85": 10552, "q850": 10553, "q8500": 10554, "q8501": 10555, "q8502": 10556, "q8503": 10557, "q8504": 10558, "q8505": 10559, "q8506": 10560, "q8507": 10561, "q8508": 10562, "q8509": 10563, "q851": 10564, "q8510": 10565, "q8511": 10566, "q8512": 10567, "q8513": 10568, "q8514": 10569, "q8515": 10570, "q8516": 10571, "q8517": 10572, "q8518": 10573, "q8519": 10574, "q852": 10575, "q8520": 10576, "q8521": 10577, "q8522": 10578, "q8523": 10579, "q8524": 10580, "q8525": 10581, "q8526": 10582, "q8527": 10583, "q8528": 10584, "q8529": 10585, "q853": 10586, "q8530": 10587, "q8531": 10588, "q8532": 10589, "q8533": 10590, "q8534": 10591, "q8535": 10592, "q8536": 10593, "q8537": 10594, "q8538": 10595, "q8539": 10596, "q854": 10597, "q8540": 10598, "q8541": 10599, "q8542": 10600, "q8543": 10601, "q8544": 10602, "q8545": 10603, "q8546": 10604, "q8547": 10605, "q8548": 10606, "q8549": 10607, "q855": 10608, "q8550": 10609, "q8551": 10610, "q8552": 10611, "q8553": 10612, "q8554": 10613, "q8555": 10614, "q8556": 10615, "q8557": 10616, "q8558": 10617, "q8559": 10618, "q856": 10619, "q8560": 10620, "q8561": 10621, "q8562": 10622, "q8563": 10623, "q8564": 10624, "q8565": 10625, "q8566": 10626, "q8567": 10627, "q8568": 10628, "q8569": 10629, "q857": 10630, "q8570": 10631, "q8571": 10632, "q8572": 10633, "q8573": 10634, "q8574": 10635, "q8575": 10636, "q8576": 10637, "q8577": 10638, "q8578": 10639, "q8579": 10640, "q858": 10641, "q8580": 10642, "q8581": 10643, "q8582": 10644, "q8583": 10645, "q8584": 10646, "q8585": 10647, "q8586": 10648, "q8587": 10649, "q8588": 10650, "q8589": 10651, "q859": 10652, "q8590": 10653, "q8591": 10654, "q8592": 10655, "q8593": 10656, "q8594": 10657, "q8595": 10658, "q8596": 10659, "q8597": 10660, "q8598": 10661, "q8599": 10662, "q86": 10663, "q860": 10664, "q8600": 10665, "q8601": 10666, "q8602": 10667, "q8603": 10668, "q8604": 10669, "q8605": 10670, "q8606": 10671, "q8607": 10672, "q8608": 10673, "q8609": 10674, "q861": 10675, "q8610": 10676, "q8611": 10677, "q8612": 10678, "q8613": 10679, "q8614": 10680, "q8615": 10681, "q8616": 10682, "q8617": 10683, "q8618": 10684, "q8619": 10685, "q862": 10686, "q8620": 10687, "q8621": 10688, "q8622": 10689, "q8623": 10690, "q8624": 10691, "q8625": 10692, "q8626": 10693, "q8627": 10694, "q8628": 10695, "q8629": 10696, "q863": 10697, "q8630": 10698, "q8631": 10699, "q8632": 10700, "q8633": 10701, "q8634": 10702, "q8635": 10703, "q8636": 10704, "q8637": 10705, "q8638": 10706, "q8639": 10707, "q864": 10708, "q8640": 10709, "q8641": 10710, "q8642": 10711, "q8643": 10712, "q8644": 10713, "q8645": 10714, "q8646": 10715, "q8647": 10716, "q8648": 10717, "q8649": 10718, "q865": 10719, "q8650": 10720, "q8651": 10721, "q8652": 10722, "q8653": 10723, "q8654": 10724, "q8655": 10725, "q8656": 10726, "q8657": 10727, "q8658": 10728, "q8659": 10729, "q866": 10730, "q8660": 10731, "q8661": 10732, "q8662": 10733, "q8663": 10734, "q8664": 10735, "q8665": 10736, "q8666": 10737, "q8667": 10738, "q8668": 10739, "q8669": 10740, "q867": 10741, "q8670": 10742, "q8671": 10743, "q8672": 10744, "q8673": 10745, "q8674": 10746, "q8675": 10747, "q8676": 10748, "q8677": 10749, "q8679": 10750, "q868": 10751, "q8680": 10752, "q8682": 10753, "q8683": 10754, "q8684": 10755, "q8685": 10756, "q8686": 10757, "q8687": 10758, "q8688": 10759, "q8689": 10760, "q869": 10761, "q8690": 10762, "q8691": 10763, "q8692": 10764, "q8693": 10765, "q8694": 10766, "q8695": 10767, "q8696": 10768, "q8697": 10769, "q8698": 10770, "q8699": 10771, "q87": 10772, "q870": 10773, "q8700": 10774, "q8701": 10775, "q8703": 10776, "q8704": 10777, "q8705": 10778, "q8706": 10779, "q8707": 10780, "q8708": 10781, "q8709": 10782, "q871": 10783, "q8710": 10784, "q8711": 10785, "q8712": 10786, "q8713": 10787, "q8714": 10788, "q8715": 10789, "q8716": 10790, "q8717": 10791, "q8718": 10792, "q8719": 10793, "q872": 10794, "q8720": 10795, "q8721": 10796, "q8722": 10797, "q8723": 10798, "q8724": 10799, "q8725": 10800, "q8726": 10801, "q8727": 10802, "q8728": 10803, "q8729": 10804, "q873": 10805, "q8730": 10806, "q8731": 10807, "q8732": 10808, "q8733": 10809, "q8734": 10810, "q8735": 10811, "q8736": 10812, "q8737": 10813, "q8738": 10814, "q8739": 10815, "q874": 10816, "q8740": 10817, "q8741": 10818, "q8742": 10819, "q8743": 10820, "q8744": 10821, "q8745": 10822, "q8746": 10823, "q8747": 10824, "q8748": 10825, "q8749": 10826, "q875": 10827, "q8750": 10828, "q8751": 10829, "q8752": 10830, "q8753": 10831, "q8754": 10832, "q8755": 10833, "q8756": 10834, "q8757": 10835, "q8758": 10836, "q8759": 10837, "q876": 10838, "q8760": 10839, "q8761": 10840, "q8762": 10841, "q8763": 10842, "q8764": 10843, "q8765": 10844, "q8766": 10845, "q8767": 10846, "q8768": 10847, "q8769": 10848, "q877": 10849, "q8770": 10850, "q8771": 10851, "q8772": 10852, "q8773": 10853, "q8774": 10854, "q8775": 10855, "q8776": 10856, "q8777": 10857, "q8778": 10858, "q8779": 10859, "q878": 10860, "q8780": 10861, "q8781": 10862, "q8782": 10863, "q8783": 10864, "q8784": 10865, "q8785": 10866, "q8786": 10867, "q8787": 10868, "q8788": 10869, "q8789": 10870, "q879": 10871, "q8790": 10872, "q8791": 10873, "q8792": 10874, "q8793": 10875, "q8794": 10876, "q8795": 10877, "q8796": 10878, "q8797": 10879, "q8798": 10880, "q8799": 10881, "q88": 10882, "q880": 10883, "q8800": 10884, "q8801": 10885, "q8802": 10886, "q8803": 10887, "q8804": 10888, "q8805": 10889, "q8806": 10890, "q8807": 10891, "q8808": 10892, "q8809": 10893, "q881": 10894, "q8810": 10895, "q8811": 10896, "q8812": 10897, "q8813": 10898, "q8814": 10899, "q8815": 10900, "q8816": 10901, "q8817": 10902, "q8818": 10903, "q8819": 10904, "q882": 10905, "q8820": 10906, "q8821": 10907, "q8822": 10908, "q8823": 10909, "q8824": 10910, "q8825": 10911, "q8826": 10912, "q8827": 10913, "q8828": 10914, "q8829": 10915, "q883": 10916, "q8830": 10917, "q8831": 10918, "q8832": 10919, "q8833": 10920, "q8834": 10921, "q8835": 10922, "q8836": 10923, "q8837": 10924, "q8838": 10925, "q8839": 10926, "q884": 10927, "q8840": 10928, "q8841": 10929, "q8842": 10930, "q8843": 10931, "q8844": 10932, "q8845": 10933, "q8846": 10934, "q8847": 10935, "q8848": 10936, "q8849": 10937, "q885": 10938, "q8850": 10939, "q8851": 10940, "q8852": 10941, "q8853": 10942, "q8854": 10943, "q8855": 10944, "q8856": 10945, "q8857": 10946, "q8858": 10947, "q8859": 10948, "q886": 10949, "q8860": 10950, "q8861": 10951, "q8862": 10952, "q8863": 10953, "q8864": 10954, "q8865": 10955, "q8866": 10956, "q8867": 10957, "q8868": 10958, "q8869": 10959, "q887": 10960, "q8870": 10961, "q8871": 10962, "q8872": 10963, "q8873": 10964, "q8874": 10965, "q8875": 10966, "q8876": 10967, "q8877": 10968, "q8878": 10969, "q8879": 10970, "q888": 10971, "q8880": 10972, "q8881": 10973, "q8882": 10974, "q8883": 10975, "q8884": 10976, "q8885": 10977, "q8886": 10978, "q8887": 10979, "q8888": 10980, "q8889": 10981, "q889": 10982, "q8890": 10983, "q8891": 10984, "q8892": 10985, "q8893": 10986, "q8894": 10987, "q8895": 10988, "q8896": 10989, "q8897": 10990, "q8898": 10991, "q8899": 10992, "q89": 10993, "q890": 10994, "q8900": 10995, "q8901": 10996, "q8902": 10997, "q8903": 10998, "q8904": 10999, "q8905": 11000, "q8906": 11001, "q8907": 11002, "q8908": 11003, "q8909": 11004, "q891": 11005, "q8910": 11006, "q8911": 11007, "q8912": 11008, "q8913": 11009, "q8914": 11010, "q8915": 11011, "q8916": 11012, "q8917": 11013, "q8918": 11014, "q8919": 11015, "q892": 11016, "q8920": 11017, "q8921": 11018, "q8922": 11019, "q8923": 11020, "q8924": 11021, "q8925": 11022, "q8926": 11023, "q8927": 11024, "q8928": 11025, "q8929": 11026, "q893": 11027, "q8930": 11028, "q8931": 11029, "q8932": 11030, "q8933": 11031, "q8934": 11032, "q8935": 11033, "q8936": 11034, "q8937": 11035, "q8938": 11036, "q8939": 11037, "q894": 11038, "q8940": 11039, "q8941": 11040, "q8942": 11041, "q8943": 11042, "q8944": 11043, "q8945": 11044, "q8946": 11045, "q8947": 11046, "q8948": 11047, "q8949": 11048, "q895": 11049, "q8950": 11050, "q8951": 11051, "q8952": 11052, "q8953": 11053, "q8954": 11054, "q8955": 11055, "q8956": 11056, "q8957": 11057, "q8958": 11058, "q8959": 11059, "q896": 11060, "q8960": 11061, "q8961": 11062, "q8962": 11063, "q8963": 11064, "q8964": 11065, "q8965": 11066, "q8966": 11067, "q8967": 11068, "q8968": 11069, "q8969": 11070, "q897": 11071, "q8970": 11072, "q8971": 11073, "q8972": 11074, "q8973": 11075, "q8974": 11076, "q8975": 11077, "q8976": 11078, "q8977": 11079, "q8978": 11080, "q8979": 11081, "q898": 11082, "q8980": 11083, "q8981": 11084, "q8982": 11085, "q8983": 11086, "q8984": 11087, "q8985": 11088, "q8986": 11089, "q8987": 11090, "q8988": 11091, "q8989": 11092, "q899": 11093, "q8990": 11094, "q8991": 11095, "q8992": 11096, "q8993": 11097, "q8994": 11098, "q8995": 11099, "q8996": 11100, "q8997": 11101, "q8998": 11102, "q8999": 11103, "q9": 11104, "q90": 11105, "q900": 11106, "q9000": 11107, "q9001": 11108, "q9002": 11109, "q9003": 11110, "q9004": 11111, "q9005": 11112, "q9006": 11113, "q9007": 11114, "q9008": 11115, "q9009": 11116, "q901": 11117, "q9010": 11118, "q9011": 11119, "q9012": 11120, "q9013": 11121, "q9014": 11122, "q9015": 11123, "q9016": 11124, "q9017": 11125, "q9018": 11126, "q9019": 11127, "q902": 11128, "q9020": 11129, "q9021": 11130, "q9022": 11131, "q9023": 11132, "q9024": 11133, "q9025": 11134, "q9026": 11135, "q9027": 11136, "q9028": 11137, "q9029": 11138, "q903": 11139, "q9030": 11140, "q9031": 11141, "q9032": 11142, "q9033": 11143, "q9034": 11144, "q9035": 11145, "q9036": 11146, "q9037": 11147, "q9038": 11148, "q9039": 11149, "q904": 11150, "q9040": 11151, "q9041": 11152, "q9042": 11153, "q9043": 11154, "q9044": 11155, "q9045": 11156, "q9046": 11157, "q9047": 11158, "q9048": 11159, "q9049": 11160, "q905": 11161, "q9050": 11162, "q9051": 11163, "q9052": 11164, "q9053": 11165, "q9054": 11166, "q9055": 11167, "q9056": 11168, "q9057": 11169, "q9058": 11170, "q9059": 11171, "q906": 11172, "q9060": 11173, "q9061": 11174, "q9062": 11175, "q9063": 11176, "q9064": 11177, "q9065": 11178, "q9066": 11179, "q9067": 11180, "q9068": 11181, "q9069": 11182, "q9070": 11183, "q9071": 11184, "q9072": 11185, "q9073": 11186, "q9074": 11187, "q9075": 11188, "q9076": 11189, "q9077": 11190, "q9078": 11191, "q9079": 11192, "q908": 11193, "q9080": 11194, "q9081": 11195, "q9082": 11196, "q9083": 11197, "q9084": 11198, "q9085": 11199, "q9086": 11200, "q9087": 11201, "q9088": 11202, "q9089": 11203, "q909": 11204, "q9090": 11205, "q9091": 11206, "q9092": 11207, "q9093": 11208, "q9094": 11209, "q9095": 11210, "q9096": 11211, "q9097": 11212, "q9098": 11213, "q9099": 11214, "q91": 11215, "q910": 11216, "q9100": 11217, "q9101": 11218, "q9102": 11219, "q9103": 11220, "q9104": 11221, "q9105": 11222, "q9106": 11223, "q9107": 11224, "q9108": 11225, "q9109": 11226, "q911": 11227, "q9110": 11228, "q9111": 11229, "q9112": 11230, "q9113": 11231, "q9114": 11232, "q9115": 11233, "q9116": 11234, "q9117": 11235, "q9118": 11236, "q9119": 11237, "q912": 11238, "q9120": 11239, "q9121": 11240, "q9122": 11241, "q9123": 11242, "q9124": 11243, "q9125": 11244, "q9126": 11245, "q9127": 11246, "q9128": 11247, "q9129": 11248, "q913": 11249, "q9130": 11250, "q9131": 11251, "q9132": 11252, "q9133": 11253, "q9134": 11254, "q9135": 11255, "q9136": 11256, "q9137": 11257, "q9138": 11258, "q9139": 11259, "q914": 11260, "q9140": 11261, "q9141": 11262, "q9142": 11263, "q9143": 11264, "q9144": 11265, "q9145": 11266, "q9146": 11267, "q9147": 11268, "q9148": 11269, "q9149": 11270, "q915": 11271, "q9150": 11272, "q9151": 11273, "q9152": 11274, "q9153": 11275, "q9154": 11276, "q9155": 11277, "q9156": 11278, "q9157": 11279, "q9158": 11280, "q9159": 11281, "q916": 11282, "q9160": 11283, "q9161": 11284, "q9162": 11285, "q9163": 11286, "q9164": 11287, "q9165": 11288, "q9166": 11289, "q9167": 11290, "q9168": 11291, "q9169": 11292, "q917": 11293, "q9170": 11294, "q9171": 11295, "q9172": 11296, "q9173": 11297, "q9174": 11298, "q9175": 11299, "q9176": 11300, "q9177": 11301, "q9178": 11302, "q9179": 11303, "q918": 11304, "q9180": 11305, "q9181": 11306, "q9182": 11307, "q9183": 11308, "q9184": 11309, "q9185": 11310, "q9186": 11311, "q9187": 11312, "q9188": 11313, "q9189": 11314, "q919": 11315, "q9190": 11316, "q9191": 11317, "q9192": 11318, "q9193": 11319, "q9194": 11320, "q9195": 11321, "q9196": 11322, "q9197": 11323, "q9198": 11324, "q9199": 11325, "q92": 11326, "q920": 11327, "q9200": 11328, "q9201": 11329, "q9202": 11330, "q9203": 11331, "q9204": 11332, "q9205": 11333, "q921": 11334, "q922": 11335, "q923": 11336, "q924": 11337, "q925": 11338, "q926": 11339, "q927": 11340, "q928": 11341, "q929": 11342, "q93": 11343, "q930": 11344, "q931": 11345, "q932": 11346, "q9325": 11347, "q9326": 11348, "q9327": 11349, "q9328": 11350, "q9329": 11351, "q933": 11352, "q9330": 11353, "q9331": 11354, "q9332": 11355, "q9333": 11356, "q9334": 11357, "q9335": 11358, "q9336": 11359, "q9337": 11360, "q9338": 11361, "q9339": 11362, "q9340": 11363, "q9341": 11364, "q9342": 11365, "q9343": 11366, "q9344": 11367, "q9345": 11368, "q9346": 11369, "q9347": 11370, "q9348": 11371, "q9349": 11372, "q935": 11373, "q9350": 11374, "q9351": 11375, "q9352": 11376, "q9353": 11377, "q9354": 11378, "q9355": 11379, "q9356": 11380, "q9357": 11381, "q9358": 11382, "q9359": 11383, "q936": 11384, "q9360": 11385, "q9361": 11386, "q9362": 11387, "q9363": 11388, "q9364": 11389, "q9365": 11390, "q9366": 11391, "q9367": 11392, "q9368": 11393, "q9369": 11394, "q937": 11395, "q9370": 11396, "q9371": 11397, "q9372": 11398, "q9373": 11399, "q9374": 11400, "q9375": 11401, "q9376": 11402, "q9377": 11403, "q9378": 11404, "q9379": 11405, "q938": 11406, "q9380": 11407, "q9381": 11408, "q9382": 11409, "q9383": 11410, "q9384": 11411, "q9385": 11412, "q9386": 11413, "q9387": 11414, "q9388": 11415, "q9389": 11416, "q939": 11417, "q9390": 11418, "q9391": 11419, "q9392": 11420, "q9393": 11421, "q9394": 11422, "q9395": 11423, "q9396": 11424, "q9397": 11425, "q9398": 11426, "q9399": 11427, "q94": 11428, "q940": 11429, "q9400": 11430, "q9401": 11431, "q9402": 11432, "q9403": 11433, "q9404": 11434, "q9405": 11435, "q9406": 11436, "q9407": 11437, "q9408": 11438, "q9409": 11439, "q941": 11440, "q9410": 11441, "q9411": 11442, "q9412": 11443, "q9413": 11444, "q9414": 11445, "q9415": 11446, "q9416": 11447, "q9417": 11448, "q9418": 11449, "q9419": 11450, "q942": 11451, "q9420": 11452, "q9421": 11453, "q9422": 11454, "q9423": 11455, "q9424": 11456, "q9425": 11457, "q9426": 11458, "q9427": 11459, "q9428": 11460, "q9429": 11461, "q943": 11462, "q9431": 11463, "q9432": 11464, "q9433": 11465, "q9434": 11466, "q9435": 11467, "q9436": 11468, "q9437": 11469, "q9438": 11470, "q9439": 11471, "q944": 11472, "q9440": 11473, "q9441": 11474, "q9442": 11475, "q9443": 11476, "q9444": 11477, "q9445": 11478, "q9446": 11479, "q9447": 11480, "q9448": 11481, "q9449": 11482, "q945": 11483, "q9450": 11484, "q9451": 11485, "q9452": 11486, "q9453": 11487, "q9454": 11488, "q9455": 11489, "q9456": 11490, "q9457": 11491, "q9458": 11492, "q9459": 11493, "q946": 11494, "q9460": 11495, "q9461": 11496, "q9462": 11497, "q9463": 11498, "q9464": 11499, "q9465": 11500, "q9466": 11501, "q9467": 11502, "q9468": 11503, "q9469": 11504, "q947": 11505, "q9470": 11506, "q9471": 11507, "q9472": 11508, "q9473": 11509, "q9474": 11510, "q9475": 11511, "q9476": 11512, "q9477": 11513, "q9478": 11514, "q9479": 11515, "q948": 11516, "q9480": 11517, "q9481": 11518, "q9482": 11519, "q9483": 11520, "q9484": 11521, "q9485": 11522, "q9486": 11523, "q9487": 11524, "q9488": 11525, "q9489": 11526, "q949": 11527, "q9490": 11528, "q9491": 11529, "q9492": 11530, "q9493": 11531, "q9495": 11532, "q9496": 11533, "q9497": 11534, "q9498": 11535, "q9499": 11536, "q95": 11537, "q950": 11538, "q9500": 11539, "q9501": 11540, "q9502": 11541, "q9503": 11542, "q9504": 11543, "q9505": 11544, "q9506": 11545, "q9507": 11546, "q9508": 11547, "q9509": 11548, "q951": 11549, "q9510": 11550, "q9511": 11551, "q9512": 11552, "q9513": 11553, "q9514": 11554, "q9515": 11555, "q9516": 11556, "q9517": 11557, "q9518": 11558, "q9519": 11559, "q952": 11560, "q9520": 11561, "q9521": 11562, "q9522": 11563, "q9523": 11564, "q9524": 11565, "q9525": 11566, "q9526": 11567, "q9527": 11568, "q9528": 11569, "q9529": 11570, "q953": 11571, "q9530": 11572, "q9531": 11573, "q9532": 11574, "q9533": 11575, "q9534": 11576, "q9535": 11577, "q9536": 11578, "q9537": 11579, "q9538": 11580, "q9539": 11581, "q954": 11582, "q9540": 11583, "q9541": 11584, "q9542": 11585, "q9543": 11586, "q9544": 11587, "q9545": 11588, "q9546": 11589, "q9547": 11590, "q9548": 11591, "q9549": 11592, "q955": 11593, "q9550": 11594, "q9551": 11595, "q9552": 11596, "q9553": 11597, "q9554": 11598, "q9555": 11599, "q9556": 11600, "q9557": 11601, "q9558": 11602, "q9559": 11603, "q956": 11604, "q9560": 11605, "q9561": 11606, "q9562": 11607, "q9563": 11608, "q9564": 11609, "q9565": 11610, "q9566": 11611, "q9567": 11612, "q9568": 11613, "q9569": 11614, "q957": 11615, "q9570": 11616, "q9571": 11617, "q9572": 11618, "q9573": 11619, "q9574": 11620, "q9575": 11621, "q9576": 11622, "q9577": 11623, "q9578": 11624, "q9579": 11625, "q958": 11626, "q9580": 11627, "q9581": 11628, "q9582": 11629, "q9583": 11630, "q9584": 11631, "q9587": 11632, "q9588": 11633, "q959": 11634, "q9590": 11635, "q9591": 11636, "q9592": 11637, "q9594": 11638, "q9596": 11639, "q9597": 11640, "q9598": 11641, "q9599": 11642, "q96": 11643, "q960": 11644, "q9600": 11645, "q9601": 11646, "q9602": 11647, "q9603": 11648, "q9604": 11649, "q9605": 11650, "q9606": 11651, "q9607": 11652, "q9608": 11653, "q9609": 11654, "q961": 11655, "q9610": 11656, "q9611": 11657, "q9612": 11658, "q9614": 11659, "q9615": 11660, "q9616": 11661, "q9617": 11662, "q9618": 11663, "q9619": 11664, "q962": 11665, "q9620": 11666, "q9621": 11667, "q9622": 11668, "q9623": 11669, "q9624": 11670, "q9625": 11671, "q9627": 11672, "q9628": 11673, "q9629": 11674, "q963": 11675, "q9630": 11676, "q9631": 11677, "q9632": 11678, "q9633": 11679, "q9634": 11680, "q9636": 11681, "q9637": 11682, "q9638": 11683, "q9639": 11684, "q964": 11685, "q9640": 11686, "q9641": 11687, "q9642": 11688, "q9643": 11689, "q9644": 11690, "q9645": 11691, "q9646": 11692, "q9647": 11693, "q9648": 11694, "q9649": 11695, "q965": 11696, "q9650": 11697, "q9651": 11698, "q9652": 11699, "q9653": 11700, "q9654": 11701, "q9655": 11702, "q9656": 11703, "q9657": 11704, "q9658": 11705, "q9659": 11706, "q966": 11707, "q9660": 11708, "q9661": 11709, "q9662": 11710, "q9665": 11711, "q9666": 11712, "q9667": 11713, "q9668": 11714, "q9669": 11715, "q967": 11716, "q9670": 11717, "q9671": 11718, "q9672": 11719, "q9673": 11720, "q9674": 11721, "q9675": 11722, "q9676": 11723, "q9677": 11724, "q9678": 11725, "q9679": 11726, "q968": 11727, "q9680": 11728, "q9681": 11729, "q9682": 11730, "q9683": 11731, "q9684": 11732, "q9685": 11733, "q9686": 11734, "q9687": 11735, "q9688": 11736, "q9689": 11737, "q969": 11738, "q9690": 11739, "q9691": 11740, "q9692": 11741, "q9693": 11742, "q9694": 11743, "q9695": 11744, "q9696": 11745, "q9697": 11746, "q9698": 11747, "q9699": 11748, "q97": 11749, "q970": 11750, "q9700": 11751, "q9701": 11752, "q9702": 11753, "q9703": 11754, "q9704": 11755, "q9705": 11756, "q9706": 11757, "q9707": 11758, "q9708": 11759, "q9709": 11760, "q971": 11761, "q9710": 11762, "q9711": 11763, "q9712": 11764, "q9713": 11765, "q9714": 11766, "q9715": 11767, "q9716": 11768, "q9717": 11769, "q9718": 11770, "q9719": 11771, "q972": 11772, "q9720": 11773, "q9721": 11774, "q9722": 11775, "q9723": 11776, "q9724": 11777, "q9725": 11778, "q9726": 11779, "q9727": 11780, "q9728": 11781, "q9729": 11782, "q973": 11783, "q9730": 11784, "q9731": 11785, "q9732": 11786, "q9733": 11787, "q9734": 11788, "q9735": 11789, "q9736": 11790, "q9737": 11791, "q9738": 11792, "q9739": 11793, "q974": 11794, "q9740": 11795, "q9741": 11796, "q9742": 11797, "q9743": 11798, "q9744": 11799, "q9745": 11800, "q9746": 11801, "q9747": 11802, "q9748": 11803, "q9749": 11804, "q975": 11805, "q9750": 11806, "q9751": 11807, "q9752": 11808, "q9753": 11809, "q9754": 11810, "q9755": 11811, "q9756": 11812, "q9757": 11813, "q9758": 11814, "q9759": 11815, "q976": 11816, "q9760": 11817, "q9761": 11818, "q9762": 11819, "q9763": 11820, "q9764": 11821, "q9765": 11822, "q9766": 11823, "q9767": 11824, "q9768": 11825, "q9769": 11826, "q977": 11827, "q9770": 11828, "q9771": 11829, "q9772": 11830, "q9773": 11831, "q9774": 11832, "q9775": 11833, "q9776": 11834, "q9777": 11835, "q9778": 11836, "q9779": 11837, "q978": 11838, "q9780": 11839, "q9781": 11840, "q9782": 11841, "q9783": 11842, "q9784": 11843, "q9785": 11844, "q9786": 11845, "q9787": 11846, "q9788": 11847, "q9789": 11848, "q979": 11849, "q9790": 11850, "q9791": 11851, "q9792": 11852, "q9793": 11853, "q9794": 11854, "q9795": 11855, "q9796": 11856, "q9797": 11857, "q9798": 11858, "q9799": 11859, "q98": 11860, "q980": 11861, "q9800": 11862, "q9801": 11863, "q9802": 11864, "q9803": 11865, "q9804": 11866, "q9805": 11867, "q9806": 11868, "q9807": 11869, "q9808": 11870, "q9809": 11871, "q981": 11872, "q9810": 11873, "q9811": 11874, "q9812": 11875, "q9813": 11876, "q9814": 11877, "q9815": 11878, "q9816": 11879, "q9817": 11880, "q9818": 11881, "q9819": 11882, "q982": 11883, "q9820": 11884, "q9821": 11885, "q9822": 11886, "q9823": 11887, "q9824": 11888, "q9825": 11889, "q9826": 11890, "q9827": 11891, "q9828": 11892, "q9829": 11893, "q983": 11894, "q9830": 11895, "q9831": 11896, "q9832": 11897, "q9833": 11898, "q9834": 11899, "q9835": 11900, "q9836": 11901, "q9837": 11902, "q9838": 11903, "q9839": 11904, "q984": 11905, "q9840": 11906, "q9841": 11907, "q9842": 11908, "q9843": 11909, "q9844": 11910, "q9845": 11911, "q9846": 11912, "q9847": 11913, "q9848": 11914, "q9849": 11915, "q985": 11916, "q9850": 11917, "q9851": 11918, "q9852": 11919, "q9853": 11920, "q9854": 11921, "q9855": 11922, "q9856": 11923, "q9857": 11924, "q9858": 11925, "q9859": 11926, "q986": 11927, "q9860": 11928, "q9861": 11929, "q9862": 11930, "q9863": 11931, "q9864": 11932, "q9865": 11933, "q9866": 11934, "q9867": 11935, "q9868": 11936, "q9869": 11937, "q987": 11938, "q9870": 11939, "q9871": 11940, "q9872": 11941, "q9873": 11942, "q9874": 11943, "q9875": 11944, "q9876": 11945, "q9877": 11946, "q9878": 11947, "q9879": 11948, "q988": 11949, "q9880": 11950, "q9881": 11951, "q9882": 11952, "q9883": 11953, "q9884": 11954, "q9885": 11955, "q9886": 11956, "q9887": 11957, "q9888": 11958, "q9889": 11959, "q989": 11960, "q9890": 11961, "q9891": 11962, "q9892": 11963, "q9893": 11964, "q9894": 11965, "q9895": 11966, "q9896": 11967, "q9897": 11968, "q9898": 11969, "q9899": 11970, "q99": 11971, "q990": 11972, "q9900": 11973, "q9901": 11974, "q9902": 11975, "q9903": 11976, "q9904": 11977, "q9905": 11978, "q9906": 11979, "q9907": 11980, "q9908": 11981, "q9909": 11982, "q991": 11983, "q9910": 11984, "q9911": 11985, "q9912": 11986, "q9913": 11987, "q9914": 11988, "q9915": 11989, "q9916": 11990, "q9917": 11991, "q9918": 11992, "q9919": 11993, "q992": 11994, "q9920": 11995, "q9921": 11996, "q9922": 11997, "q9923": 11998, "q9924": 11999, "q9925": 12000, "q9926": 12001, "q9927": 12002, "q9928": 12003, "q9929": 12004, "q993": 12005, "q9930": 12006, "q9931": 12007, "q9932": 12008, "q9933": 12009, "q9934": 12010, "q9935": 12011, "q9936": 12012, "q9937": 12013, "q9938": 12014, "q9939": 12015, "q994": 12016, "q9940": 12017, "q9941": 12018, "q9942": 12019, "q9943": 12020, "q9944": 12021, "q9945": 12022, "q9946": 12023, "q9947": 12024, "q9948": 12025, "q9949": 12026, "q995": 12027, "q9950": 12028, "q9951": 12029, "q9952": 12030, "q9953": 12031, "q9954": 12032, "q9955": 12033, "q9956": 12034, "q9957": 12035, "q9958": 12036, "q9959": 12037, "q996": 12038, "q9960": 12039, "q9961": 12040, "q9962": 12041, "q9963": 12042, "q9964": 12043, "q9965": 12044, "q9966": 12045, "q9967": 12046, "q9968": 12047, "q9969": 12048, "q997": 12049, "q9970": 12050, "q9971": 12051, "q9972": 12052, "q9973": 12053, "q9974": 12054, "q9975": 12055, "q9976": 12056, "q9977": 12057, "q9978": 12058, "q9979": 12059, "q998": 12060, "q9980": 12061, "q9981": 12062, "q9982": 12063, "q9983": 12064, "q9984": 12065, "q9985": 12066, "q9986": 12067, "q9988": 12068, "q9989": 12069, "q999": 12070, "q9990": 12071, "q9991": 12072, "q9992": 12073, "q9993": 12074, "q9994": 12075, "q9995": 12076, "q9996": 12077, "q9997": 12078, "q9998": 12079, "q9999": 12080}, "idx2item": {"0": "[PAD]", "1": "[MASK]", "2": "q1", "3": "q10", "4": "q100", "5": "q1000", "6": "q10000", "7": "q10001", "8": "q10002", "9": "q10003", "10": "q10004", "11": "q10005", "12": "q10006", "13": "q10007", "14": "q10008", "15": "q10009", "16": "q1001", "17": "q10010", "18": "q10011", "19": "q10012", "20": "q10013", "21": "q10014", "22": "q10015", "23": "q10016", "24": "q10017", "25": "q10018", "26": "q10019", "27": "q1002", "28": "q10020", "29": "q10021", "30": "q10022", "31": "q10023", "32": "q10024", "33": "q10025", "34": "q10026", "35": "q10027", "36": "q10028", "37": "q10029", "38": "q1003", "39": "q10030", "40": "q10031", "41": "q10032", "42": "q10033", "43": "q10034", "44": "q10035", "45": "q10036", "46": "q10037", "47": "q10038", "48": "q10039", "49": "q1004", "50": "q10041", "51": "q10042", "52": "q10043", "53": "q10044", "54": "q10045", "55": "q10046", "56": "q10047", "57": "q10048", "58": "q10049", "59": "q1005", "60": "q10050", "61": "q10051", "62": "q10052", "63": "q10053", "64": "q10054", "65": "q10055", "66": "q10056", "67": "q10057", "68": "q10058", "69": "q10059", "70": "q1006", "71": "q10060", "72": "q10061", "73": "q10062", "74": "q10063", "75": "q10064", "76": "q10065", "77": "q10066", "78": "q10067", "79": "q10069", "80": "q1007", "81": "q10070", "82": "q10071", "83": "q10072", "84": "q10073", "85": "q10074", "86": "q10075", "87": "q10076", "88": "q10077", "89": "q10078", "90": "q10079", "91": "q1008", "92": "q10080", "93": "q10081", "94": "q10082", "95": "q10083", "96": "q10084", "97": "q10085", "98": "q10086", "99": "q10087", "100": "q10088", "101": "q10089", "102": "q1009", "103": "q10090", "104": "q10091", "105": "q10092", "106": "q10093", "107": "q10094", "108": "q10095", "109": "q10096", "110": "q10097", "111": "q10098", "112": "q10099", "113": "q101", "114": "q1010", "115": "q10100", "116": "q10101", "117": "q10102", "118": "q10103", "119": "q10104", "120": "q10105", "121": "q10106", "122": "q10107", "123": "q10108", "124": "q10109", "125": "q1011", "126": "q10110", "127": "q10111", "128": "q10112", "129": "q10113", "130": "q10114", "131": "q10115", "132": "q10116", "133": "q10117", "134": "q10118", "135": "q10119", "136": "q1012", "137": "q10120", "138": "q10121", "139": "q10122", "140": "q10123", "141": "q10124", "142": "q10125", "143": "q10126", "144": "q10127", "145": "q10128", "146": "q10129", "147": "q1013", "148": "q10130", "149": "q10131", "150": "q10132", "151": "q10133", "152": "q10134", "153": "q10135", "154": "q10136", "155": "q10137", "156": "q10138", "157": "q10139", "158": "q1014", "159": "q10140", "160": "q10141", "161": "q10142", "162": "q10143", "163": "q10144", "164": "q10145", "165": "q10146", "166": "q10147", "167": "q10148", "168": "q10149", "169": "q1015", "170": "q10150", "171": "q10151", "172": "q10152", "173": "q10153", "174": "q10154", "175": "q10155", "176": "q10156", "177": "q10157", "178": "q10158", "179": "q10159", "180": "q1016", "181": "q10160", "182": "q10161", "183": "q10162", "184": "q10163", "185": "q10164", "186": "q10165", "187": "q10166", "188": "q10167", "189": "q10168", "190": "q10169", "191": "q1017", "192": "q10170", "193": "q10171", "194": "q10172", "195": "q10173", "196": "q10174", "197": "q10175", "198": "q10176", "199": "q10177", "200": "q10179", "201": "q1018", "202": "q10180", "203": "q10181", "204": "q10182", "205": "q10183", "206": "q10184", "207": "q10185", "208": "q10186", "209": "q10187", "210": "q10188", "211": "q10189", "212": "q1019", "213": "q10190", "214": "q10191", "215": "q10192", "216": "q10193", "217": "q10194", "218": "q10195", "219": "q10196", "220": "q10197", "221": "q10198", "222": "q10199", "223": "q102", "224": "q1020", "225": "q10200", "226": "q10201", "227": "q10202", "228": "q10203", "229": "q10204", "230": "q10205", "231": "q10206", "232": "q10207", "233": "q10208", "234": "q10209", "235": "q1021", "236": "q10210", "237": "q10211", "238": "q10212", "239": "q10213", "240": "q10214", "241": "q10215", "242": "q10216", "243": "q10217", "244": "q10218", "245": "q10219", "246": "q1022", "247": "q10220", "248": "q10221", "249": "q10222", "250": "q10223", "251": "q10224", "252": "q10225", "253": "q10226", "254": "q10227", "255": "q10228", "256": "q10229", "257": "q1023", "258": "q10230", "259": "q10231", "260": "q10233", "261": "q10234", "262": "q10235", "263": "q10236", "264": "q10237", "265": "q10238", "266": "q10239", "267": "q1024", "268": "q10240", "269": "q10241", "270": "q10242", "271": "q10243", "272": "q10244", "273": "q10245", "274": "q10246", "275": "q10247", "276": "q10248", "277": "q10249", "278": "q1025", "279": "q10250", "280": "q10251", "281": "q10252", "282": "q10253", "283": "q10254", "284": "q10255", "285": "q10256", "286": "q10257", "287": "q10258", "288": "q10259", "289": "q1026", "290": "q10260", "291": "q10261", "292": "q10262", "293": "q10263", "294": "q10264", "295": "q10265", "296": "q10266", "297": "q10267", "298": "q10268", "299": "q10269", "300": "q10270", "301": "q10271", "302": "q10272", "303": "q10273", "304": "q10274", "305": "q10275", "306": "q10276", "307": "q10277", "308": "q10278", "309": "q10279", "310": "q1028", "311": "q10280", "312": "q10281", "313": "q10282", "314": "q10283", "315": "q10284", "316": "q10285", "317": "q10286", "318": "q10287", "319": "q10288", "320": "q10289", "321": "q1029", "322": "q10290", "323": "q10291", "324": "q10292", "325": "q10293", "326": "q10294", "327": "q10295", "328": "q10296", "329": "q10297", "330": "q10298", "331": "q10299", "332": "q103", "333": "q1030", "334": "q10300", "335": "q10301", "336": "q10302", "337": "q10303", "338": "q10304", "339": "q10305", "340": "q10306", "341": "q10308", "342": "q10309", "343": "q1031", "344": "q10310", "345": "q10311", "346": "q10312", "347": "q10313", "348": "q10314", "349": "q10315", "350": "q10316", "351": "q10317", "352": "q10318", "353": "q10319", "354": "q1032", "355": "q10320", "356": "q10321", "357": "q10322", "358": "q10323", "359": "q10324", "360": "q10325", "361": "q10326", "362": "q10327", "363": "q10328", "364": "q10329", "365": "q1033", "366": "q10330", "367": "q10331", "368": "q10332", "369": "q10333", "370": "q10334", "371": "q10335", "372": "q1034", "373": "q10344", "374": "q10345", "375": "q10346", "376": "q10347", "377": "q10348", "378": "q10349", "379": "q1035", "380": "q10350", "381": "q10351", "382": "q10352", "383": "q10353", "384": "q10354", "385": "q10355", "386": "q10356", "387": "q10357", "388": "q10358", "389": "q10359", "390": "q1036", "391": "q10360", "392": "q10361", "393": "q10362", "394": "q10363", "395": "q10364", "396": "q10365", "397": "q10366", "398": "q10367", "399": "q1037", "400": "q1038", "401": "q1039", "402": "q104", "403": "q1040", "404": "q1041", "405": "q1042", "406": "q1043", "407": "q1044", "408": "q1045", "409": "q1046", "410": "q1047", "411": "q1048", "412": "q1049", "413": "q105", "414": "q1050", "415": "q1051", "416": "q1052", "417": "q1053", "418": "q1054", "419": "q1055", "420": "q1056", "421": "q1057", "422": "q1058", "423": "q1059", "424": "q10598", "425": "q10599", "426": "q106", "427": "q1060", "428": "q10600", "429": "q10601", "430": "q10602", "431": "q10603", "432": "q10604", "433": "q10605", "434": "q10606", "435": "q10607", "436": "q10608", "437": "q10609", "438": "q1061", "439": "q10610", "440": "q10611", "441": "q10612", "442": "q10613", "443": "q10614", "444": "q10615", "445": "q10616", "446": "q10617", "447": "q10618", "448": "q10619", "449": "q1062", "450": "q10620", "451": "q10621", "452": "q10622", "453": "q10623", "454": "q10624", "455": "q10625", "456": "q10626", "457": "q10627", "458": "q10628", "459": "q10629", "460": "q1063", "461": "q10630", "462": "q10631", "463": "q10632", "464": "q10633", "465": "q10634", "466": "q10635", "467": "q10636", "468": "q10637", "469": "q10638", "470": "q10639", "471": "q1064", "472": "q10640", "473": "q10641", "474": "q10642", "475": "q10643", "476": "q10644", "477": "q10645", "478": "q10646", "479": "q10647", "480": "q10648", "481": "q10649", "482": "q1065", "483": "q10650", "484": "q10651", "485": "q10652", "486": "q10653", "487": "q10654", "488": "q10655", "489": "q10656", "490": "q10657", "491": "q10658", "492": "q10659", "493": "q1066", "494": "q10660", "495": "q10661", "496": "q10662", "497": "q10663", "498": "q10664", "499": "q10665", "500": "q10666", "501": "q10667", "502": "q10668", "503": "q10669", "504": "q1067", "505": "q10670", "506": "q10671", "507": "q10672", "508": "q10673", "509": "q10674", "510": "q10675", "511": "q10676", "512": "q10677", "513": "q10678", "514": "q10679", "515": "q1068", "516": "q10680", "517": "q10681", "518": "q10682", "519": "q10683", "520": "q10684", "521": "q10685", "522": "q10686", "523": "q10687", "524": "q10688", "525": "q10689", "526": "q1069", "527": "q10690", "528": "q10691", "529": "q10692", "530": "q10693", "531": "q10694", "532": "q10695", "533": "q10696", "534": "q10697", "535": "q10698", "536": "q10699", "537": "q107", "538": "q1070", "539": "q10700", "540": "q10701", "541": "q10702", "542": "q10703", "543": "q10704", "544": "q10705", "545": "q10706", "546": "q10707", "547": "q10708", "548": "q10709", "549": "q1071", "550": "q10710", "551": "q10711", "552": "q10712", "553": "q10713", "554": "q10714", "555": "q10715", "556": "q10716", "557": "q10717", "558": "q10718", "559": "q10719", "560": "q1072", "561": "q10720", "562": "q10721", "563": "q10722", "564": "q10723", "565": "q10724", "566": "q10725", "567": "q10726", "568": "q10727", "569": "q10728", "570": "q10729", "571": "q1073", "572": "q10730", "573": "q10731", "574": "q10732", "575": "q10733", "576": "q10734", "577": "q10735", "578": "q10736", "579": "q10737", "580": "q10738", "581": "q10739", "582": "q10740", "583": "q10741", "584": "q10742", "585": "q10743", "586": "q10744", "587": "q10745", "588": "q10746", "589": "q10747", "590": "q10748", "591": "q10749", "592": "q1075", "593": "q10750", "594": "q10751", "595": "q10752", "596": "q10753", "597": "q10754", "598": "q10755", "599": "q10756", "600": "q10757", "601": "q10758", "602": "q10759", "603": "q1076", "604": "q10760", "605": "q10761", "606": "q10762", "607": "q10763", "608": "q10764", "609": "q10765", "610": "q10766", "611": "q10767", "612": "q10768", "613": "q10769", "614": "q1077", "615": "q10770", "616": "q10771", "617": "q10772", "618": "q10773", "619": "q10774", "620": "q10775", "621": "q10776", "622": "q10777", "623": "q10778", "624": "q10779", "625": "q1078", "626": "q10780", "627": "q10781", "628": "q10782", "629": "q10783", "630": "q10784", "631": "q10785", "632": "q10786", "633": "q10787", "634": "q10788", "635": "q10789", "636": "q1079", "637": "q10790", "638": "q10791", "639": "q10792", "640": "q10793", "641": "q10794", "642": "q10795", "643": "q10796", "644": "q10797", "645": "q10798", "646": "q10799", "647": "q108", "648": "q1080", "649": "q10800", "650": "q10801", "651": "q10802", "652": "q10803", "653": "q10804", "654": "q10805", "655": "q10806", "656": "q10807", "657": "q10808", "658": "q10809", "659": "q1081", "660": "q10810", "661": "q10811", "662": "q10812", "663": "q10813", "664": "q10814", "665": "q10815", "666": "q10816", "667": "q10817", "668": "q10818", "669": "q10819", "670": "q1082", "671": "q10820", "672": "q10821", "673": "q10822", "674": "q10823", "675": "q10824", "676": "q10825", "677": "q10826", "678": "q10827", "679": "q10828", "680": "q10829", "681": "q1083", "682": "q10830", "683": "q10831", "684": "q10832", "685": "q10833", "686": "q10834", "687": "q10835", "688": "q10836", "689": "q10837", "690": "q10838", "691": "q10839", "692": "q1084", "693": "q10840", "694": "q10841", "695": "q10842", "696": "q10843", "697": "q10844", "698": "q10845", "699": "q10846", "700": "q10847", "701": "q10848", "702": "q10849", "703": "q1085", "704": "q10850", "705": "q10851", "706": "q10852", "707": "q10853", "708": "q10854", "709": "q10855", "710": "q10856", "711": "q10857", "712": "q10858", "713": "q10859", "714": "q1086", "715": "q10860", "716": "q10861", "717": "q10862", "718": "q10863", "719": "q10864", "720": "q10865", "721": "q10866", "722": "q10867", "723": "q10868", "724": "q10869", "725": "q1087", "726": "q10870", "727": "q10871", "728": "q10872", "729": "q10873", "730": "q10874", "731": "q10875", "732": "q10876", "733": "q10877", "734": "q10878", "735": "q10879", "736": "q1088", "737": "q10880", "738": "q10881", "739": "q10882", "740": "q10883", "741": "q10884", "742": "q10885", "743": "q10886", "744": "q10887", "745": "q10888", "746": "q10889", "747": "q1089", "748": "q10890", "749": "q10891", "750": "q10892", "751": "q10893", "752": "q10894", "753": "q10895", "754": "q10896", "755": "q10897", "756": "q10898", "757": "q10899", "758": "q109", "759": "q1090", "760": "q10900", "761": "q10901", "762": "q10902", "763": "q10903", "764": "q10904", "765": "q10905", "766": "q10906", "767": "q10907", "768": "q10908", "769": "q10909", "770": "q1091", "771": "q10910", "772": "q10911", "773": "q10912", "774": "q10913", "775": "q10914", "776": "q10915", "777": "q10916", "778": "q10917", "779": "q10918", "780": "q10919", "781": "q1092", "782": "q10920", "783": "q10921", "784": "q10922", "785": "q10923", "786": "q10924", "787": "q10925", "788": "q10926", "789": "q10927", "790": "q10928", "791": "q10929", "792": "q1093", "793": "q10930", "794": "q10931", "795": "q10932", "796": "q10933", "797": "q10934", "798": "q10935", "799": "q10936", "800": "q10937", "801": "q10938", "802": "q10939", "803": "q1094", "804": "q10940", "805": "q10941", "806": "q10942", "807": "q10943", "808": "q10944", "809": "q10945", "810": "q10946", "811": "q10947", "812": "q10948", "813": "q10949", "814": "q1095", "815": "q10950", "816": "q10951", "817": "q10952", "818": "q10953", "819": "q10954", "820": "q10955", "821": "q10956", "822": "q10957", "823": "q10959", "824": "q1096", "825": "q10960", "826": "q10961", "827": "q10962", "828": "q10963", "829": "q10964", "830": "q10965", "831": "q10966", "832": "q10967", "833": "q10968", "834": "q10969", "835": "q1097", "836": "q10970", "837": "q10971", "838": "q10972", "839": "q10973", "840": "q10974", "841": "q10975", "842": "q10976", "843": "q10977", "844": "q10978", "845": "q10979", "846": "q1098", "847": "q10980", "848": "q10981", "849": "q10982", "850": "q10983", "851": "q10984", "852": "q10985", "853": "q10986", "854": "q10987", "855": "q10988", "856": "q10989", "857": "q1099", "858": "q10990", "859": "q10991", "860": "q10992", "861": "q10993", "862": "q10994", "863": "q10995", "864": "q10996", "865": "q10997", "866": "q10998", "867": "q10999", "868": "q11", "869": "q110", "870": "q1100", "871": "q11000", "872": "q11001", "873": "q11002", "874": "q11003", "875": "q11004", "876": "q11005", "877": "q11006", "878": "q11007", "879": "q11008", "880": "q11009", "881": "q1101", "882": "q11010", "883": "q11011", "884": "q11012", "885": "q11013", "886": "q11014", "887": "q11015", "888": "q11016", "889": "q11017", "890": "q11018", "891": "q11019", "892": "q1102", "893": "q11020", "894": "q11021", "895": "q11022", "896": "q11023", "897": "q11024", "898": "q11025", "899": "q11026", "900": "q11027", "901": "q11028", "902": "q11029", "903": "q1103", "904": "q11030", "905": "q11031", "906": "q11032", "907": "q11033", "908": "q11034", "909": "q11035", "910": "q11036", "911": "q11037", "912": "q11038", "913": "q11039", "914": "q1104", "915": "q11040", "916": "q11041", "917": "q11042", "918": "q11043", "919": "q11044", "920": "q11045", "921": "q11046", "922": "q11047", "923": "q11048", "924": "q11049", "925": "q1105", "926": "q11050", "927": "q11051", "928": "q11052", "929": "q11053", "930": "q11054", "931": "q11055", "932": "q11056", "933": "q11057", "934": "q11058", "935": "q11059", "936": "q1106", "937": "q11060", "938": "q11061", "939": "q11062", "940": "q11063", "941": "q11064", "942": "q11065", "943": "q11066", "944": "q11067", "945": "q11068", "946": "q11069", "947": "q1107", "948": "q11070", "949": "q11071", "950": "q11072", "951": "q11073", "952": "q11074", "953": "q11075", "954": "q11076", "955": "q11077", "956": "q11078", "957": "q11079", "958": "q1108", "959": "q11080", "960": "q11081", "961": "q11082", "962": "q11083", "963": "q11084", "964": "q11085", "965": "q11086", "966": "q11087", "967": "q11088", "968": "q11089", "969": "q1109", "970": "q11090", "971": "q11091",
[...]
